{
  "[PAD]": 0,
  "<s>": 1,
  "</s>": 2,
  "[UNK]": 3,
  "[MASK]": 4,
  "<en>": 5,
  "<de>": 6,
  "Ġ": 7,
  "a": 8,
  "b": 9,
  "c": 10,
  "d": 11,
  "e": 12,
  "f": 13,
  "g": 14,
  "h": 15,
  "i": 16,
  "j": 17,
  "k": 18,
  "l": 19,
  "m": 20,
  "n": 21,
  "o": 22,
  "p": 23,
  "q": 24,
  "r": 25,
  "s": 26,
  "t": 27,
  "u": 28,
  "v": 29,
  "w": 30,
  "x": 31,
  "y": 32,
  "z": 33,
  "ä": 34,
  "ö": 35,
  "ü": 36,
  "ß": 37,
  ".": 38,
  ",": 39,
  "!": 40,
  "?": 41,
  ";": 42,
  ":": 43,
  "(": 44,
  ")": 45,
  "[": 46,
  "]": 47,
  "{": 48,
  "}": 49,
  "\"": 50,
  "'": 51,
  "`": 52,
  "eĠ": 53,
  "en": 54,
  "nĠ": 55,
  "er": 56,
  "Ġd": 57,
  "Ġt": 58,
  "in": 59,
  "Ġa": 60,
  "sĠ": 61,
  "he": 62,
  "ch": 63,
  "rĠ": 64,
  "de": 65,
  "tĠ": 66,
  "th": 67,
  ",Ġ": 68,
  "re": 69,
  "Ġi": 70,
  "on": 71,
  "te": 72,
  "nd": 73,
  "un": 74,
  "an": 75,
  "es": 76,
  "ie": 77,
  "dĠ": 78,
  "Ġs": 79,
  "Ġw": 80,
  "ei": 81,
  "Ġe": 82,
  "it": 83,
  "ti": 84,
  "is": 85,
  "ge": 86,
  "ic": 87,
  "ng": 88,
  "be": 89,
  "at": 90,
  "st": 91,
  "nt": 92,
  "Ġo": 93,
  "di": 94,
  "Ġb": 95,
  "or": 96,
  "se": 97,
  "me": 98,
  "al": 99,
  "ne": 100,
  "Ġm": 101,
  "io": 102,
  "Ġp": 103,
  "Ġu": 104,
  "Ġf": 105,
  "li": 106,
  "ar": 107,
  "ha": 108,
  "le": 109,
  "gĠ": 110,
  "hĠ": 111,
  "si": 112,
  "Ġc": 113,
  "ve": 114,
  "ra": 115,
  "fĠ": 116,
  "ro": 117,
  "ur": 118,
  "oĠ": 119,
  "sc": 120,
  "Ġr": 121,
  "ns": 122,
  "ri": 123,
  "yĠ": 124,
  "Ġv": 125,
  "to": 126,
  "el": 127,
  "Ġh": 128,
  "Ġg": 129,
  "co": 130,
  "as": 131,
  "of": 132,
  "lĠ": 133,
  "wi": 134,
  "ss": 135,
  "au": 136,
  "we": 137,
  "ed": 138,
  "ll": 139,
  "Ġn": 140,
  "em": 141,
  "mi": 142,
  "mĠ": 143,
  "ni": 144,
  "rt": 145,
  "pr": 146,
  "n,": 147,
  "us": 148,
  "ta": 149,
  "om": 150,
  "hi": 151,
  "ht": 152,
  "Ġthe": 153,
  "theĠ": 154,
  "derĠ": 155,
  "dieĠ": 156,
  "ungĠ": 157,
  "op": 158,
  "zu": 159,
  "ionĠ": 160,
  "andĠ": 161,
  "Ġdie": 162,
  "undĠ": 163,
  "atio": 164,
  "ment": 165,
  "lich": 166,
  "Ġder": 167,
  "tion": 168,
  "genĠ": 169,
  "uro": 170,
  "for": 171,
  "ĠofĠ": 172,
  "ĠinĠ": 173,
  "ul": 174,
  "pe": 175,
  "chen": 176,
  "Ġand": 177,
  "t,Ġ": 178,
  "ingĠ": 179,
  "denĠ": 180,
  "ver": 181,
  "ou": 182,
  "ĠtoĠ": 183,
  "Ġz": 184,
  "Ġund": 185,
  "da": 186,
  "tenĠ": 187,
  "Ġre": 188,
  "lyĠ": 189,
  "la": 190,
  "sch": 191,
  "Ġein": 192,
  "Ġk": 193,
  "ec": 194,
  "eine": 195,
  "ame": 196,
  "po": 197,
  "fü": 198,
  "aß": 199,
  "ürĠ": 200,
  "ff": 201,
  "s,Ġ": 202,
  "tz": 203,
  "that": 204,
  ",Ġd": 205,
  "hich": 206,
  "berĠ": 207,
  "ofĠt": 208,
  "nĠde": 209,
  "pro": 210,
  "miss": 211,
  "ach": 212,
  "isch": 213,
  "lo": 214,
  "ci": 215,
  "Ġver": 216,
  "no": 217,
  "ab": 218,
  "en,Ġ": 219,
  "Ġbe": 220,
  "ac": 221,
  "ssio": 222,
  "n,Ġd": 223,
  "sche": 224,
  "ung": 225,
  "run": 226,
  "ho": 227,
  "gĠde": 228,
  "por": 229,
  "mp": 230,
  "ol": 231,
  "Ġeur": 232,
  "ter": 233,
  "eur": 234,
  "ck": 235,
  "Ġpro": 236,
  "ah": 237,
  "n.": 238,
  "cti": 239,
  "hre": 240,
  "so": 241,
  "oli": 242,
  "ldĠ": 243,
  "ommi": 244,
  "Ġau": 245,
  "kom": 246,
  "henĠ": 247,
  "übe": 248,
  "hatĠ": 249,
  "tsĠ": 250,
  "nenĠ": 251,
  "nĠun": 252,
  "ationĠ": 253,
  "ofĠthe": 254,
  "Ġeurop": 255,
  "Ġwi": 256,
  "europ": 257,
  "icht": 258,
  "Ġfor": 259,
  "ope": 260,
  "ig": 261,
  "chtĠ": 262,
  "ĠisĠ": 263,
  "ichĠ": 264,
  "ceĠ": 265,
  "ean": 266,
  "fürĠ": 267,
  "von": 268,
  "Ġzu": 269,
  "e,Ġ": 270,
  "tra": 271,
  "ent": 272,
  "which": 273,
  "ther": 274,
  "Ġpar": 275,
  "dies": 276,
  "vor": 277,
  "Ġden": 278,
  "par": 279,
  "nc": 280,
  "Ġcon": 281,
  "opä": 282,
  "ru": 283,
  "äisch": 284,
  "y,Ġ": 285,
  "dent": 286,
  "com": 287,
  "qu": 288,
  "der": 289,
  "nal": 290,
  "tte": 291,
  "desĠ": 292,
  "soĠ": 293,
  "wer": 294,
  "ide": 295,
  "ble": 296,
  "ak": 297,
  "theĠco": 298,
  "Ġco": 299,
  "ungenĠ": 300,
  "ischen": 301,
  "scha": 302,
  "änd": 303,
  "ĠthatĠ": 304,
  "mme": 305,
  "ĠofĠtheĠ": 306,
  "with": 307,
  "hal": 308,
  "sich": 309,
  "um": 310,
  "tri": 311,
  "su": 312,
  "mitĠ": 313,
  "Ġuni": 314,
  "inĠthe": 315,
  "d,Ġ": 316,
  "up": 317,
  "nter": 318,
  "haf": 319,
  "ir": 320,
  "our": 321,
  "mit": 322,
  "lä": 323,
  "aufĠ": 324,
  "utĠ": 325,
  "tic": 326,
  "ungĠderĠ": 327,
  "Ġge": 328,
  "ĠtheĠc": 329,
  "ts": 330,
  "umĠ": 331,
  "Ġha": 332,
  "oll": 333,
  "pres": 334,
  "Ġthi": 335,
  "menĠ": 336,
  ",Ġw": 337,
  "das": 338,
  "Ġer": 339,
  "nion": 340,
  "rk": 341,
  "überĠ": 342,
  "Ġmit": 343,
  "hisĠ": 344,
  "this": 345,
  "imĠ": 346,
  "irĠ": 347,
  "am": 348,
  "chte": 349,
  "kei": 350,
  "Ġj": 351,
  "gra": 352,
  "schaf": 353,
  "Ġunion": 354,
  "lan": 355,
  "Ġall": 356,
  "wirĠ": 357,
  "Ġle": 358,
  "tur": 359,
  "ive": 360,
  "ungs": 361,
  "beit": 362,
  "gre": 363,
  "heit": 364,
  "Ġno": 365,
  "her": 366,
  "poli": 367,
  "t.": 368,
  "stat": 369,
  "areĠ": 370,
  "äischen": 371,
  "Ġde": 372,
  "eu": 373,
  "lichen": 374,
  "Ġare": 375,
  "notĠ": 376,
  "eren": 377,
  "ateĠ": 378,
  "wor": 379,
  "Ġvon": 380,
  "sĠandĠ": 381,
  "byĠ": 382,
  "wieĠ": 383,
  "ityĠ": 384,
  "ommissio": 385,
  "zie": 386,
  "eh": 387,
  "ftĠ": 388,
  "Ġdiese": 389,
  "ex": 390,
  "ag": 391,
  "Ġal": 392,
  "il": 393,
  "mo": 394,
  "uß": 395,
  ",ĠdieĠ": 396,
  "ĠthisĠ": 397,
  "ür": 398,
  "ili": 399,
  "Ġdem": 400,
  "tedĠ": 401,
  "Ġaus": 402,
  "terĠ": 403,
  "Ġvor": 404,
  "Ġne": 405,
  "n,Ġdie": 406,
  "ĠfürĠ": 407,
  "renĠ": 408,
  "Ġeuropean": 409,
  "fra": 410,
  "s.": 411,
  "lu": 412,
  "missionĠ": 413,
  "Ġex": 414,
  "ouldĠ": 415,
  "age": 416,
  "gen": 417,
  "Ġdes": 418,
  "ding": 419,
  "ations": 420,
  "ces": 421,
  "aus": 422,
  "Ġcom": 423,
  "reg": 424,
  "tive": 425,
  "son": 426,
  "Ġwhich": 427,
  "gan": 428,
  "ap": 429,
  "sta": 430,
  "du": 431,
  "mein": 432,
  "auch": 433,
  "Ġich": 434,
  "enĠund": 435,
  "Ġreg": 436,
  "benĠ": 437,
  "ational": 438,
  "sĠof": 439,
  "ĠonĠ": 440,
  ",Ġdaß": 441,
  "tu": 442,
  "cial": 443,
  "ange": 444,
  "hrĠ": 445,
  "ĠweĠ": 446,
  "ution": 447,
  "nichtĠ": 448,
  "urch": 449,
  "europäisch": 450,
  "alsĠ": 451,
  "tre": 452,
  "demĠ": 453,
  "Ġwit": 454,
  "schenĠ": 455,
  "Ġso": 456,
  "portĠ": 457,
  "ĠbeĠ": 458,
  "Ġsch": 459,
  "Ġnicht": 460,
  "rä": 461,
  "romĠ": 462,
  "ustĠ": 463,
  "Ġpoli": 464,
  "ĠaufĠ": 465,
  "Ġsta": 466,
  "lie": 467,
  "ein": 468,
  "ction": 469,
  "ĠimĠ": 470,
  "ament": 471,
  "lament": 472,
  "uldĠ": 473,
  "ssen": 474,
  "fin": 475,
  "per": 476,
  "liame": 477,
  "ad": 478,
  "nĠundĠ": 479,
  "sp": 480,
  "im": 481,
  "bli": 482,
  "eĠto": 483,
  "have": 484,
  "nk": 485,
  "ige": 486,
  "Ġin": 487,
  "Ġhave": 488,
  "mö": 489,
  "sĠto": 490,
  "Ġres": 491,
  "nder": 492,
  "ayĠ": 493,
  "staat": 494,
  "sident": 495,
  "bei": 496,
  "Ġbes": 497,
  "mm": 498,
  "Ġab": 499,
  "Ġpo": 500,
  "Ġbei": 501,
  "ting": 502,
  "ĠasĠ": 503,
  "Ġist": 504,
  "war": 505,
  "allĠ": 506,
  "houl": 507,
  "european": 508,
  "toĠthe": 509,
  "zur": 510,
  "ĠwirĠ": 511,
  "lied": 512,
  "aten": 513,
  "tyĠ": 514,
  "auf": 515,
  "Ġent": 516,
  "stel": 517,
  "zus": 518,
  "tig": 519,
  "zi": 520,
  "Ġli": 521,
  "man": 522,
  "wä": 523,
  "mrĠ": 524,
  "ĠitĠ": 525,
  "ial": 526,
  "theĠcom": 527,
  "Ġdas": 528,
  "äsi": 529,
  "tik": 530,
  "keĠ": 531,
  "will": 532,
  "einĠ": 533,
  "gli": 534,
  "sĠin": 535,
  "wir": 536,
  "Ġber": 537,
  "onĠthe": 538,
  "ĠesĠ": 539,
  "keitĠ": 540,
  "enĠs": 541,
  "Ġfra": 542,
  "nz": 543,
  "ithĠ": 544,
  "twe": 545,
  "ain": 546,
  "ommissionĠ": 547,
  "ause": 548,
  "spe": 549,
  "'Ġs": 550,
  "politi": 551,
  "dsĠ": 552,
  "liament": 553,
  "houldĠ": 554,
  "ĠwithĠ": 555,
  "glied": 556,
  ",Ġin": 557,
  "cht": 558,
  "ĠbyĠ": 559,
  "con": 560,
  "glich": 561,
  "arbeit": 562,
  "n,Ġw": 563,
  "unci": 564,
  "Ġinter": 565,
  "tro": 566,
  "sieĠ": 567,
  "kon": 568,
  "mitte": 569,
  "preside": 570,
  "nt,Ġ": 571,
  "alle": 572,
  "dar": 573,
  "daß": 574,
  "Ġwill": 575,
  "vi": 576,
  "rü": 577,
  "nah": 578,
  "zei": 579,
  "butĠ": 580,
  "ark": 581,
  "über": 582,
  "ner": 583,
  "outĠ": 584,
  "istĠ": 585,
  "ĠeineĠ": 586,
  "uch": 587,
  "nach": 588,
  "rungĠ": 589,
  "national": 590,
  "ön": 591,
  "ident": 592,
  "nment": 593,
  "thatĠthe": 594,
  "sten": 595,
  "ĠanĠ": 596,
  "europäischen": 597,
  "kan": 598,
  "mun": 599,
  "ight": 600,
  "entĠ": 601,
  "Ġher": 602,
  "nnĠ": 603,
  "licheĠ": 604,
  "ĠwouldĠ": 605,
  "Ġwer": 606,
  "nĠderĠ": 607,
  "Ġpre": 608,
  "nceĠ": 609,
  "tĠundĠ": 610,
  "ryĠ": 611,
  "ep": 612,
  "nden": 613,
  "Ġcoun": 614,
  "Ġunter": 615,
  "mon": 616,
  "n,Ġdaß": 617,
  "coun": 618,
  "go": 619,
  "ĠinĠtheĠ": 620,
  "ob": 621,
  "bere": 622,
  "lenĠ": 623,
  "werde": 624,
  "en.": 625,
  "Ġse": 626,
  "tungĠ": 627,
  "rsĠ": 628,
  "ring": 629,
  "d.": 630,
  "nne": 631,
  "nom": 632,
  "tĠwer": 633,
  "ions": 634,
  "fürĠdieĠ": 635,
  "ative": 636,
  "Ġges": 637,
  "stem": 638,
  "einerĠ": 639,
  "rich": 640,
  "weit": 641,
  "yst": 642,
  "Ġparliame": 643,
  "was": 644,
  "auss": 645,
  "Ġdi": 646,
  "ĠnotĠ": 647,
  "ght": 648,
  ",ĠandĠ": 649,
  "leg": 650,
  "gu": 651,
  "berĠstat": 652,
  "ystem": 653,
  "e.": 654,
  "oh": 655,
  "cause": 656,
  "las": 657,
  "able": 658,
  "wick": 659,
  "oreĠ": 660,
  "Ġy": 661,
  "tries": 662,
  "Ġuns": 663,
  "fic": 664,
  "ande": 665,
  "gemein": 666,
  "iseĠ": 667,
  "sind": 668,
  "Ġwor": 669,
  "Ġan": 670,
  "sion": 671,
  "weis": 672,
  "Ġins": 673,
  "dere": 674,
  "fre": 675,
  "lop": 676,
  "rtschaf": 677,
  "Ġl": 678,
  "ear": 679,
  "ĠĠ": 680,
  "Ġhas": 681,
  "alsoĠ": 682,
  "itsĠ": 683,
  "pre": 684,
  "och": 685,
  "all": 686,
  "fromĠ": 687,
  "Ġ(": 688,
  "vie": 689,
  "velo": 690,
  "jec": 691,
  "if": 692,
  "lungĠ": 693,
  "gliedstaat": 694,
  "imp": 695,
  "here": 696,
  ",Ġwe": 697,
  "wel": 698,
  "neh": 699,
  "ihre": 700,
  "ing": 701,
  "Ġmem": 702,
  "präsi": 703,
  "länder": 704,
  "vent": 705,
  "tain": 706,
  "äsident": 707,
  "Ġauch": 708,
  "durch": 709,
  "hasĠ": 710,
  "dĠto": 711,
  "kommissionĠ": 712,
  "asse": 713,
  "ord": 714,
  "igenĠ": 715,
  "sel": 716,
  "af": 717,
  "utz": 718,
  "stan": 719,
  "amme": 720,
  "vert": 721,
  "Ġparliament": 722,
  "allyĠ": 723,
  "Ġparlament": 724,
  "ill": 725,
  "Ġsie": 726,
  "mple": 727,
  "men": 728,
  "hme": 729,
  "hand": 730,
  "herrĠ": 731,
  "tä": 732,
  "form": 733,
  "you": 734,
  "bar": 735,
  "edĠtoĠ": 736,
  "do": 737,
  "can": 738,
  "ilĠ": 739,
  "mor": 740,
  "stell": 741,
  "ai": 742,
  "wei": 743,
  "lar": 744,
  "hoĠ": 745,
  "ureĠ": 746,
  "ye": 747,
  "eĠin": 748,
  ",Ġdas": 749,
  "berĠstates": 750,
  "spr": 751,
  "ek": 752,
  "velop": 753,
  "präsident": 754,
  ",ĠtheĠ": 755,
  "setz": 756,
  "einenĠ": 757,
  "habe": 758,
  "ster": 759,
  "Ġfin": 760,
  "füh": 761,
  "ib": 762,
  "ctĠ": 763,
  "itĠisĠ": 764,
  "ste": 765,
  "eg": 766,
  "fol": 767,
  "forĠthe": 768,
  "ade": 769,
  "tĠof": 770,
  "president,Ġ": 771,
  "Ġda": 772,
  "work": 773,
  "Ġtra": 774,
  "pp": 775,
  "Ġdis": 776,
  "politik": 777,
  "fer": 778,
  "hö": 779,
  "igĠ": 780,
  "ĠsichĠ": 781,
  "ular": 782,
  "grun": 783,
  "geb": 784,
  "ließ": 785,
  "Ġright": 786,
  "ktion": 787,
  "iti": 788,
  "überĠdieĠ": 789,
  "itä": 790,
  "ich": 791,
  "Ġman": 792,
  "Ġeuropäischen": 793,
  "rund": 794,
  "y.": 795,
  "ingĠtheĠ": 796,
  "ctive": 797,
  "inter": 798,
  "dernĠ": 799,
  "urde": 800,
  "lage": 801,
  "mü": 802,
  "fu": 803,
  "ĠtoĠtheĠ": 804,
  "akeĠ": 805,
  "ammen": 806,
  "conom": 807,
  "erungĠ": 808,
  "ple": 809,
  "orta": 810,
  "ungĠdesĠ": 811,
  "unk": 812,
  "unter": 813,
  "ma": 814,
  "Ġeiner": 815,
  "likeĠ": 816,
  "eyĠ": 817,
  "dieseĠ": 818,
  "rate": 819,
  "Ġor": 820,
  "Ġdar": 821,
  "eins": 822,
  "mens": 823,
  "ausĠ": 824,
  "Ġac": 825,
  "pen": 826,
  "oneĠ": 827,
  "gie": 828,
  "nungĠ": 829,
  "ople": 830,
  "reat": 831,
  "gerĠ": 832,
  "now": 833,
  "schla": 834,
  "aussch": 835,
  "schi": 836,
  "Ġad": 837,
  "Ġour": 838,
  "itie": 839,
  "änder": 840,
  "fen": 841,
  "zen": 842,
  "unse": 843,
  "herĠ": 844,
  "best": 845,
  "Ġzur": 846,
  "stra": 847,
  "aryĠ": 848,
  "bo": 849,
  "ticul": 850,
  "fah": 851,
  "wur": 852,
  ",Ġwhich": 853,
  "ticular": 854,
  "rnĠ": 855,
  "tru": 856,
  "ced": 857,
  "ĠshouldĠ": 858,
  "ffen": 859,
  "ghĠ": 860,
  "tell": 861,
  "sein": 862,
  "missio": 863,
  "tical": 864,
  "cyĠ": 865,
  "ubli": 866,
  "Ġ\"": 867,
  "Ġint": 868,
  "zial": 869,
  "inĠder": 870,
  "ute": 871,
  "inte": 872,
  "etz": 873,
  "pos": 874,
  "stru": 875,
  "andĠtheĠ": 876,
  "Ġihre": 877,
  "ütz": 878,
  "Ġgro": 879,
  "Ġvie": 880,
  "soll": 881,
  "beri": 882,
  "Ġpri": 883,
  "theĠcommissionĠ": 884,
  "wirtschaf": 885,
  "sĠofĠthe": 886,
  "because": 887,
  "ist,Ġ": 888,
  "dieser": 889,
  "tween": 890,
  "lini": 891,
  "rung": 892,
  "ganis": 893,
  "Ġauf": 894,
  "kön": 895,
  "sesĠ": 896,
  "gro": 897,
  "ĠumĠ": 898,
  "hä": 899,
  "cons": 900,
  "velopment": 901,
  "fä": 902,
  "oderĠ": 903,
  "Ġme": 904,
  "Ġsu": 905,
  "ffic": 906,
  "ious": 907,
  ",Ġi": 908,
  "ultur": 909,
  "Ġen": 910,
  "gramme": 911,
  "uman": 912,
  "mini": 913,
  "Ġper": 914,
  "ehrĠ": 915,
  "Ġgo": 916,
  "ĠandĠthe": 917,
  "Ġsin": 918,
  "ifĠ": 919,
  "ank": 920,
  "Ġar": 921,
  "Ġind": 922,
  "gen,": 923,
  "sal": 924,
  "oper": 925,
  "ĠmustĠ": 926,
  "Ġste": 927,
  "eden": 928,
  "Ġqu": 929,
  "möchte": 930,
  "tt": 931,
  "Ġkon": 932,
  "aßnah": 933,
  "sedĠ": 934,
  "Ġgen": 935,
  "t,ĠdieĠ": 936,
  "oc": 937,
  "schaftĠ": 938,
  "tige": 939,
  "gs": 940,
  "ech": 941,
  "richtĠ": 942,
  "verĠ": 943,
  "actĠ": 944,
  "ĠfürĠdieĠ": 945,
  "likeĠto": 946,
  "mrĠpresident,Ġ": 947,
  "ationĠof": 948,
  "Ġgem": 949,
  "dge": 950,
  "Ġcan": 951,
  "en,ĠdieĠ": 952,
  "cer": 953,
  "feren": 954,
  "ly,Ġ": 955,
  "wirk": 956,
  "eĠof": 957,
  "ges": 958,
  "ndeĠ": 959,
  "ime": 960,
  "ĠkommissionĠ": 961,
  "cont": 962,
  "ĠamĠ": 963,
  "ated": 964,
  "zumĠ": 965,
  "berichtĠ": 966,
  "Ġto": 967,
  "ible": 968,
  "omeĠ": 969,
  "vernment": 970,
  "pf": 971,
  "etĠ": 972,
  "gle": 973,
  "lear": 974,
  "gliedstaaten": 975,
  "ueĠ": 976,
  "ow": 977,
  "Ġmö": 978,
  "ures": 979,
  "ffec": 980,
  "beson": 981,
  "mark": 982,
  "eseĠ": 983,
  "imm": 984,
  "wnĠ": 985,
  "ĠinĠderĠ": 986,
  "tlich": 987,
  "Ġwie": 988,
  "such": 989,
  "ĠalsĠ": 990,
  "kra": 991,
  "halb": 992,
  "vis": 993,
  "shouldĠ": 994,
  "other": 995,
  "parlament": 996,
  "ĠalsoĠ": 997,
  "ĠatĠ": 998,
  "Ġbeen": 999,
  "ation,": 1000,
  "ereĠ": 1001,
  "mem": 1002,
  "nerĠ": 1003,
  "Ġwir": 1004,
  "ĠsoĠ": 1005,
  "unionĠ": 1006,
  "Ġwas": 1007,
  "foreĠ": 1008,
  "conomic": 1009,
  "möglich": 1010,
  "jah": 1011,
  "gene": 1012,
  "unsere": 1013,
  "gel": 1014,
  "sk": 1015,
  "ĠonĠtheĠ": 1016,
  "ok": 1017,
  "thei": 1018,
  "thereĠ": 1019,
  "bra": 1020,
  "Ġwel": 1021,
  "Ġcommi": 1022,
  "Ġun": 1023,
  "Ġnach": 1024,
  "Ġhat": 1025,
  "ser": 1026,
  "Ġfre": 1027,
  "cie": 1028,
  "Ġmo": 1029,
  "ilityĠ": 1030,
  "withĠthe": 1031,
  "tun": 1032,
  "hat,Ġ": 1033,
  "tĠwerde": 1034,
  "ĠforĠthe": 1035,
  "ück": 1036,
  "annĠ": 1037,
  "nur": 1038,
  "ut": 1039,
  "nf": 1040,
  "ĠitsĠ": 1041,
  "antĠ": 1042,
  "uen": 1043,
  "hin": 1044,
  "ten,": 1045,
  "Ġproble": 1046,
  "ko": 1047,
  "Ġang": 1048,
  "ublic": 1049,
  "ennĠ": 1050,
  "eder": 1051,
  "Ġwei": 1052,
  "herrĠpräsident": 1053,
  ",ĠundĠ": 1054,
  "ater": 1055,
  "ĠeuropeanĠunion": 1056,
  "tigĠ": 1057,
  "ĠfromĠ": 1058,
  "Ġrat": 1059,
  "Ġdurch": 1060,
  "rein": 1061,
  "aberĠ": 1062,
  "tĠderĠ": 1063,
  "schließ": 1064,
  "vingĠ": 1065,
  "ning": 1066,
  "irst": 1067,
  "Ġpe": 1068,
  "rective": 1069,
  "tigenĠ": 1070,
  "sent": 1071,
  "ortant": 1072,
  "Ġum": 1073,
  "gĠderĠ": 1074,
  "ken": 1075,
  "Ġimp": 1076,
  "zusammen": 1077,
  "Ġeuropäisch": 1078,
  "stütz": 1079,
  "rech": 1080,
  "unsĠ": 1081,
  "mal": 1082,
  "theĠeuropean": 1083,
  "theirĠ": 1084,
  "ĠorĠ": 1085,
  ",ĠderĠ": 1086,
  "Ġeinem": 1087,
  "lleĠ": 1088,
  "stit": 1089,
  "same": 1090,
  "Ġfinan": 1091,
  "Ġüber": 1092,
  "est": 1093,
  "sĠundĠ": 1094,
  "Ġzus": 1095,
  "posal": 1096,
  "und": 1097,
  "schri": 1098,
  "munityĠ": 1099,
  "woh": 1100,
  "undĠdieĠ": 1101,
  "Ġspe": 1102,
  "Ġcha": 1103,
  "ungĠvon": 1104,
  "entwick": 1105,
  "sor": 1106,
  "sicher": 1107,
  "fri": 1108,
  "viro": 1109,
  "ronment": 1110,
  "Ġob": 1111,
  "bin": 1112,
  "rungĠde": 1113,
  "ĠmemberĠstates": 1114,
  "besch": 1115,
  "noch": 1116,
  "inĠden": 1117,
  "sition": 1118,
  "anz": 1119,
  "venĠ": 1120,
  "dire": 1121,
  ",Ġas": 1122,
  "wäh": 1123,
  "werdenĠ": 1124,
  "byĠtheĠ": 1125,
  "ingĠto": 1126,
  "tho": 1127,
  "hr": 1128,
  "cal": 1129,
  "av": 1130,
  "weiseĠ": 1131,
  "ire": 1132,
  "gtĠ": 1133,
  "id": 1134,
  "rechte": 1135,
  "theĠre": 1136,
  "Ġleg": 1137,
  "gni": 1138,
  "reas": 1139,
  "alth": 1140,
  "europeanĠunion": 1141,
  "sseĠ": 1142,
  "iche": 1143,
  "eĠon": 1144,
  "cond": 1145,
  "senĠ": 1146,
  "mentsĠ": 1147,
  "ör": 1148,
  "llen": 1149,
  "rungenĠ": 1150,
  "äischeĠ": 1151,
  "titu": 1152,
  "vironment": 1153,
  "wurde": 1154,
  "come": 1155,
  "ĠeuropäischeĠ": 1156,
  "Ġgemeins": 1157,
  "comp": 1158,
  "n,Ġund": 1159,
  "vic": 1160,
  "wennĠ": 1161,
  "trans": 1162,
  "Ġother": 1163,
  "Ġberei": 1164,
  "system": 1165,
  "vol": 1166,
  "Ġwork": 1167,
  "bat": 1168,
  "besondere": 1169,
  "moreĠ": 1170,
  "Ġrel": 1171,
  "tĠwerdenĠ": 1172,
  "amĠ": 1173,
  "aufĠdieĠ": 1174,
  "äch": 1175,
  "handel": 1176,
  "eĠandĠ": 1177,
  "einesĠ": 1178,
  "ber": 1179,
  "Ġbericht": 1180,
  "ĠdieserĠ": 1181,
  "theyĠ": 1182,
  "iert": 1183,
  "Ġmark": 1184,
  "and,Ġ": 1185,
  "uncilĠ": 1186,
  "mä": 1187,
  "ßen": 1188,
  "Ġmon": 1189,
  "ĠdiesemĠ": 1190,
  "ieve": 1191,
  "Ġdec": 1192,
  "ant": 1193,
  "Ġmen": 1194,
  "onlyĠ": 1195,
  "Ġdevelopment": 1196,
  "n,Ġdas": 1197,
  "Ġcountries": 1198,
  "bst": 1199,
  "nehme": 1200,
  "ik": 1201,
  "proble": 1202,
  "astĠ": 1203,
  "nĠdesĠ": 1204,
  "dert": 1205,
  "ional": 1206,
  "Ġcommitte": 1207,
  "zwi": 1208,
  "derĠto": 1209,
  "theĠf": 1210,
  "feĠ": 1211,
  "mend": 1212,
  "udge": 1213,
  "Ġallem": 1214,
  "ay": 1215,
  "sing": 1216,
  "name": 1217,
  "vera": 1218,
  "ties": 1219,
  "theseĠ": 1220,
  "hose": 1221,
  "veryĠ": 1222,
  "sondernĠ": 1223,
  "wert": 1224,
  "hil": 1225,
  "Ġnew": 1226,
  "Ġsocial": 1227,
  "Ġsec": 1228,
  "wal": 1229,
  "nat": 1230,
  "men,": 1231,
  "vedĠ": 1232,
  "aßnahmenĠ": 1233,
  "inc": 1234,
  ",ĠbutĠ": 1235,
  "whatĠ": 1236,
  "öff": 1237,
  "ĠoderĠ": 1238,
  "ami": 1239,
  "lus": 1240,
  "Ġser": 1241,
  "ĠmoreĠ": 1242,
  "cep": 1243,
  "dieses": 1244,
  "punk": 1245,
  "cheĠ": 1246,
  "Ġmin": 1247,
  "Ġsit": 1248,
  "them": 1249,
  "dition": 1250,
  "Ġsup": 1251,
  "atĠthe": 1252,
  "ionenĠ": 1253,
  "intĠ": 1254,
  "rou": 1255,
  "ĠtheĠcommissionĠ": 1256,
  "been": 1257,
  "Ġag": 1258,
  "ĠzumĠ": 1259,
  "grund": 1260,
  "zeu": 1261,
  "conc": 1262,
  "mustĠ": 1263,
  "iĠwouldĠ": 1264,
  "nahme": 1265,
  "Ġtime": 1266,
  "thatĠweĠ": 1267,
  "linieĠ": 1268,
  "mus": 1269,
  "Ġthere": 1270,
  "muß": 1271,
  "iteĠ": 1272,
  "itizen": 1273,
  "habenĠ": 1274,
  "pie": 1275,
  "lk": 1276,
  "produ": 1277,
  "cor": 1278,
  "right": 1279,
  "ĠtoĠbe": 1280,
  "qual": 1281,
  "sowieĠ": 1282,
  "cilĠ": 1283,
  "mittel": 1284,
  "ständ": 1285,
  "tlichen": 1286,
  "estion": 1287,
  "demo": 1288,
  "gri": 1289,
  "atz": 1290,
  "vorge": 1291,
  "Ġnur": 1292,
  "ssible": 1293,
  "aff": 1294,
  "menschen": 1295,
  "Ġcounci": 1296,
  "Ġhabe": 1297,
  "estĠ": 1298,
  "Ġap": 1299,
  "ainst": 1300,
  "anceĠ": 1301,
  "ementĠ": 1302,
  "loy": 1303,
  "ous": 1304,
  "äf": 1305,
  "wouldĠ": 1306,
  "Ġentwick": 1307,
  "elyĠ": 1308,
  "lau": 1309,
  "Ġarbeit": 1310,
  "Ġstate": 1311,
  "tischenĠ": 1312,
  "twend": 1313,
  "ass": 1314,
  "msĠ": 1315,
  "ote": 1316,
  "vide": 1317,
  "ĠinĠdenĠ": 1318,
  "asures": 1319,
  "vo": 1320,
  "ues": 1321,
  "bal": 1322,
  "ĠaufĠdieĠ": 1323,
  "Ġla": 1324,
  "parliament": 1325,
  "between": 1326,
  "sozial": 1327,
  "sub": 1328,
  "presen": 1329,
  "verk": 1330,
  "ationĠofĠthe": 1331,
  "richt": 1332,
  "ĠderĠeuropäischen": 1333,
  "bene": 1334,
  "countries": 1335,
  "wirdĠ": 1336,
  "eing": 1337,
  "koll": 1338,
  "Ġwerde": 1339,
  "leis": 1340,
  "Ġlo": 1341,
  "Ġop": 1342,
  "ĠitĠis": 1343,
  "pri": 1344,
  "a,Ġ": 1345,
  "wend": 1346,
  "gese": 1347,
  ",ĠdassĠ": 1348,
  "stre": 1349,
  "aran": 1350,
  "year": 1351,
  "wich": 1352,
  "formĠ": 1353,
  "weĠare": 1354,
  "woĠ": 1355,
  "Ġup": 1356,
  "landĠ": 1357,
  "en,Ġdaß": 1358,
  "ĠthatĠtheĠ": 1359,
  "teri": 1360,
  "Ġsystem": 1361,
  "wohlĠ": 1362,
  "ĠdoĠ": 1363,
  "Ġagre": 1364,
  ",ĠdaßĠdie": 1365,
  "Ġeu": 1366,
  "mat": 1367,
  "isl": 1368,
  "ital": 1369,
  "ga": 1370,
  "air": 1371,
  "müssen": 1372,
  "Ġkön": 1373,
  "lungs": 1374,
  "Ġpeople": 1375,
  "ßer": 1376,
  "t,Ġdaß": 1377,
  "tor": 1378,
  "a)": 1379,
  "Ġ.": 1380,
  "tiv": 1381,
  "dieĠkommissionĠ": 1382,
  "rent": 1383,
  "Ġiss": 1384,
  "ĠveryĠ": 1385,
  "pon": 1386,
  "onsi": 1387,
  "tryĠ": 1388,
  "ĠtheĠco": 1389,
  "Ġbed": 1390,
  "stitution": 1391,
  "cur": 1392,
  "frau": 1393,
  "Ġhuman": 1394,
  "ĠwhoĠ": 1395,
  "tĠofĠthe": 1396,
  "Ġnational": 1397,
  "Ġprä": 1398,
  "Ġbesch": 1399,
  "titution": 1400,
  "wird,Ġ": 1401,
  "kommenĠ": 1402,
  "sec": 1403,
  "tei": 1404,
  "Ġart": 1405,
  "Ġregar": 1406,
  "tische": 1407,
  "Ġtrans": 1408,
  "agre": 1409,
  "ausschus": 1410,
  "Ġinc": 1411,
  "Ġjah": 1412,
  "rück": 1413,
  "Ġbel": 1414,
  "Ġfe": 1415,
  "Ġprogramme": 1416,
  "adĠ": 1417,
  "ric": 1418,
  "ĠnoĠ": 1419,
  "Ġnoch": 1420,
  "ĠüberĠ": 1421,
  "genheit": 1422,
  "ätz": 1423,
  "Ġsitu": 1424,
  ",Ġto": 1425,
  "einemĠ": 1426,
  "Ġger": 1427,
  "finan": 1428,
  "rungs": 1429,
  "ling": 1430,
  "gend": 1431,
  "entra": 1432,
  "Ġbo": 1433,
  "pla": 1434,
  "shĠ": 1435,
  "ationenĠ": 1436,
  "rungĠderĠ": 1437,
  "Ġyou": 1438,
  "halte": 1439,
  "haus": 1440,
  "ischeĠ": 1441,
  "dec": 1442,
  "hinĠ": 1443,
  "echen": 1444,
  "inĠa": 1445,
  "europäischenĠunion": 1446,
  "bera": 1447,
  "tier": 1448,
  "elle": 1449,
  "tent": 1450,
  "ĠreportĠ": 1451,
  "überĠdenĠ": 1452,
  "äm": 1453,
  "nehmenĠ": 1454,
  "edoch": 1455,
  "Ġprodu": 1456,
  "Ġsub": 1457,
  "whoĠ": 1458,
  "öffent": 1459,
  "torĠ": 1460,
  "ordne": 1461,
  "ĠĠ(": 1462,
  "read": 1463,
  "cific": 1464,
  "particular": 1465,
  "schutz": 1466,
  "people": 1467,
  "ationĠandĠ": 1468,
  "taryĠ": 1469,
  "eini": 1470,
  "sser": 1471,
  "könne": 1472,
  "side": 1473,
  "ürde": 1474,
  "Ġbas": 1475,
  "new": 1476,
  "Ġunder": 1477,
  "bess": 1478,
  "herrĠpräsident,Ġ": 1479,
  "idĠ": 1480,
  "stab": 1481,
  "Ġpolitical": 1482,
  "hnenĠ": 1483,
  "bil": 1484,
  "bens": 1485,
  "ischer": 1486,
  "Ġass": 1487,
  "wür": 1488,
  "Ġemp": 1489,
  "time": 1490,
  "adyĠ": 1491,
  "keitenĠ": 1492,
  "bas": 1493,
  "ruck": 1494,
  "aboutĠ": 1495,
  "änderungs": 1496,
  "dennĠ": 1497,
  "tenĠundĠ": 1498,
  "ticularlyĠ": 1499,
  "abge": 1500,
  "ordi": 1501,
  "land": 1502,
  "nor": 1503,
  "dien": 1504,
  "geord": 1505,
  "Ġfu": 1506,
  "ĠherrnĠ": 1507,
  "führt": 1508,
  "Ġsei": 1509,
  "hing": 1510,
  "Ġnat": 1511,
  "schĠ": 1512,
  "ack": 1513,
  "odĠ": 1514,
  "Ġparticular": 1515,
  "icher": 1516,
  "gungĠ": 1517,
  "erst": 1518,
  "mehrĠ": 1519,
  "scheid": 1520,
  "ung,Ġ": 1521,
  "weiter": 1522,
  "sĠwhich": 1523,
  ",ĠwieĠ": 1524,
  "wing": 1525,
  "international": 1526,
  "genera": 1527,
  "ger": 1528,
  "letz": 1529,
  "räge": 1530,
  "nu": 1531,
  "ĠwerdenĠ": 1532,
  "nedĠ": 1533,
  "important": 1534,
  "Ġricht": 1535,
  "ehr": 1536,
  "tection": 1537,
  "ctur": 1538,
  "ungĠundĠ": 1539,
  "vö": 1540,
  "there": 1541,
  "line": 1542,
  "ciple": 1543,
  "clear": 1544,
  "halfĠ": 1545,
  "frage": 1546,
  "sehrĠ": 1547,
  "urse": 1548,
  "memberĠstates": 1549,
  "ion,": 1550,
  "are": 1551,
  "Ġcri": 1552,
  "readyĠ": 1553,
  "Ġkom": 1554,
  "val": 1555,
  "loyment": 1556,
  "inĠthisĠ": 1557,
  "Ġone": 1558,
  "Ġgreat": 1559,
  "lic": 1560,
  "ordnungĠ": 1561,
  "(a)": 1562,
  "bre": 1563,
  "kri": 1564,
  "Ġfun": 1565,
  "sĠfor": 1566,
  "wever": 1567,
  "rei": 1568,
  "Ġter": 1569,
  "oughĠ": 1570,
  "bri": 1571,
  "ausge": 1572,
  "ierungĠ": 1573,
  "stä": 1574,
  "cas": 1575,
  "Ġans": 1576,
  "ĠundĠdie": 1577,
  "et": 1578,
  "cri": 1579,
  "Ġunser": 1580,
  "regie": 1581,
  "teil": 1582,
  "mitgliedstaaten": 1583,
  "ĠwithĠtheĠ": 1584,
  "Ġeinen": 1585,
  "Ġhin": 1586,
  "umwel": 1587,
  "endĠ": 1588,
  "luß": 1589,
  "Ġgrund": 1590,
  "Ġwe": 1591,
  "lement": 1592,
  "gehe": 1593,
  "ts,Ġ": 1594,
  "howe": 1595,
  "sĠderĠ": 1596,
  "voll": 1597,
  "Ġstra": 1598,
  "tr": 1599,
  "welt": 1600,
  "doĠ": 1601,
  "Ġinstitution": 1602,
  "ivenĠ": 1603,
  "Ġeconomic": 1604,
  "nĠdenĠ": 1605,
  "Ġ,Ġ": 1606,
  "andere": 1607,
  "gin": 1608,
  "Ġtha": 1609,
  "give": 1610,
  "s,ĠandĠ": 1611,
  "zuĠver": 1612,
  "mer": 1613,
  "emp": 1614,
  "ventionĠ": 1615,
  "ctsĠ": 1616,
  "ktur": 1617,
  "Ġfrau": 1618,
  "rö": 1619,
  "ator": 1620,
  "sĠareĠ": 1621,
  "fun": 1622,
  "fferen": 1623,
  "whenĠ": 1624,
  "sĠinĠthe": 1625,
  "ĠtheyĠ": 1626,
  "schlagĠ": 1627,
  "stelle": 1628,
  "ample": 1629,
  "those": 1630,
  "rahme": 1631,
  "grü": 1632,
  "Ġinteres": 1633,
  "bereichĠ": 1634,
  "vorschla": 1635,
  "Ġgel": 1636,
  "thor": 1637,
  "appro": 1638,
  "public": 1639,
  "jective": 1640,
  "stimm": 1641,
  "Ġview": 1642,
  "timm": 1643,
  "führe": 1644,
  "Ġmöchte": 1645,
  "tĠin": 1646,
  "plan": 1647,
  "ofĠthisĠ": 1648,
  "xtĠ": 1649,
  "imme": 1650,
  "Ġproposal": 1651,
  "Ġenvironment": 1652,
  "ierĠ": 1653,
  "ĠpolicyĠ": 1654,
  "ming": 1655,
  "Ġorganis": 1656,
  "ĠforĠa": 1657,
  "dedĠ": 1658,
  "ulationĠ": 1659,
  "myĠ": 1660,
  "evenĠ": 1661,
  "Ġgovernment": 1662,
  "hole": 1663,
  "ende": 1664,
  "ĠcouncilĠ": 1665,
  "prom": 1666,
  "diesem": 1667,
  "however": 1668,
  "ĠmyĠ": 1669,
  "beiĠder": 1670,
  "lis": 1671,
  "ongĠ": 1672,
  "then": 1673,
  "ind": 1674,
  "Ġfac": 1675,
  "acheĠ": 1676,
  "solu": 1677,
  "sup": 1678,
  "aĠs": 1679,
  "äftig": 1680,
  "ürgerĠ": 1681,
  "Ġpräsident": 1682,
  "ichĠmöchte": 1683,
  "Ġbür": 1684,
  "ustri": 1685,
  "es,Ġ": 1686,
  "bewer": 1687,
  "Ġgu": 1688,
  "Ġappro": 1689,
  "commissio": 1690,
  "mitĠderĠ": 1691,
  "izie": 1692,
  "kre": 1693,
  "nten": 1694,
  "asĠa": 1695,
  "most": 1696,
  "))": 1697,
  "igkeitĠ": 1698,
  "brauch": 1699,
  "ia": 1700,
  "gegenĠ": 1701,
  "pflich": 1702,
  "Ġim": 1703,
  "Ġhe": 1704,
  "government": 1705,
  "sĠthat": 1706,
  "quire": 1707,
  "fe": 1708,
  "nolo": 1709,
  "olution": 1710,
  "Ġtak": 1711,
  "bür": 1712,
  "gemeinsame": 1713,
  "unterĠ": 1714,
  "ĠaberĠ": 1715,
  "druck": 1716,
  "ncyĠ": 1717,
  "gleich": 1718,
  "niti": 1719,
  "emen": 1720,
  "sprechen": 1721,
  "gen,Ġdie": 1722,
  "ofĠa": 1723,
  "rec": 1724,
  "ssen,Ġ": 1725,
  "ausschussesĠ": 1726,
  "gration": 1727,
  "Ġyear": 1728,
  "beingĠ": 1729,
  "where": 1730,
  "damitĠ": 1731,
  "Ġzei": 1732,
  "tungenĠ": 1733,
  "ernĠ": 1734,
  "Ġinform": 1735,
  "akingĠ": 1736,
  "eig": 1737,
  "ĠcĠĠ(": 1738,
  "bie": 1739,
  "teur": 1740,
  "Ġinternational": 1741,
  "wayĠ": 1742,
  "mach": 1743,
  "triff": 1744,
  "Ġwar": 1745,
  "ländernĠ": 1746,
  "tech": 1747,
  "europäischeĠ": 1748,
  "log": 1749,
  "tation": 1750,
  "Ġmade": 1751,
  "ĠofĠa": 1752,
  "ĠorderĠto": 1753,
  "were": 1754,
  "onĠbe": 1755,
  "port,Ġ": 1756,
  "Ġconcer": 1757,
  "ĠwhatĠ": 1758,
  "and": 1759,
  "action": 1760,
  "issu": 1761,
  "klä": 1762,
  "Ġmü": 1763,
  "zel": 1764,
  "hof": 1765,
  "dayĠ": 1766,
  "less": 1767,
  "ertain": 1768,
  "sol": 1769,
  "aidĠ": 1770,
  "schieden": 1771,
  "frei": 1772,
  "dassĠ": 1773,
  "ĠbehalfĠ": 1774,
  "halfĠofĠthe": 1775,
  "whichĠisĠ": 1776,
  "edĠbyĠ": 1777,
  "Ġcer": 1778,
  "des": 1779,
  "noĠ": 1780,
  "regar": 1781,
  "ĠmrĠ": 1782,
  "Ġrech": 1783,
  "Ġwirtschaf": 1784,
  "app": 1785,
  "Ġmill": 1786,
  "anyĠ": 1787,
  "Ġzie": 1788,
  "wird.": 1789,
  "prin": 1790,
  "dament": 1791,
  "edu": 1792,
  "ĠbutĠ": 1793,
  "directive": 1794,
  "t:": 1795,
  "thingĠ": 1796,
  "gesetz": 1797,
  "programme": 1798,
  "völk": 1799,
  "Ġexample": 1800,
  "ftenĠ": 1801,
  "bereit": 1802,
  "zwische": 1803,
  "hier": 1804,
  "steĠ": 1805,
  "ämlich": 1806,
  "Ġsp": 1807,
  "inform": 1808,
  "takeĠ": 1809,
  "itätĠ": 1810,
  "tragĠ": 1811,
  "Ġko": 1812,
  "ĠsindĠ": 1813,
  "weĠhave": 1814,
  "Ġleve": 1815,
  "amend": 1816,
  "verein": 1817,
  "zü": 1818,
  "te,Ġ": 1819,
  "atingĠ": 1820,
  "genenĠ": 1821,
  "()": 1822,
  "ĠüberĠdieĠ": 1823,
  "omen": 1824,
  "ins": 1825,
  "zieh": 1826,
  "cra": 1827,
  "hrend": 1828,
  "rit": 1829,
  "ient": 1830,
  "resp": 1831,
  "Ġbeing": 1832,
  "üns": 1833,
  "Ġunterstütz": 1834,
  "äuß": 1835,
  "mental": 1836,
  "ĠeuropeanĠparliament": 1837,
  "hether": 1838,
  "ratĠ": 1839,
  "Ġmitgliedstaaten": 1840,
  "vom": 1841,
  "ess": 1842,
  "agement": 1843,
  "amp": 1844,
  "ienĠ": 1845,
  "fel": 1846,
  "respe": 1847,
  "theĠne": 1848,
  "toĠbeĠ": 1849,
  "grundĠ": 1850,
  "sbesondere": 1851,
  "ürlich": 1852,
  "Ġcertain": 1853,
  "ĠderĠeuropäischenĠunion": 1854,
  "kä": 1855,
  "hig": 1856,
  "ĠcommunityĠ": 1857,
  "willĠbeĠ": 1858,
  "Ġcooper": 1859,
  "mäß": 1860,
  "ens": 1861,
  "Ġgemeinsch": 1862,
  "ortĠ": 1863,
  "ratesĠ": 1864,
  "tungĠderĠ": 1865,
  "ten.": 1866,
  "ichenĠ": 1867,
  "pose": 1868,
  "situ": 1869,
  "operationĠ": 1870,
  "theĠcouncilĠ": 1871,
  "ilitä": 1872,
  "hang": 1873,
  "bring": 1874,
  "vorĠallem": 1875,
  "minister": 1876,
  "ian": 1877,
  "ity,Ġ": 1878,
  "bateĠ": 1879,
  "ist.": 1880,
  "stärk": 1881,
  "gemeinschaf": 1882,
  ",Ġwas": 1883,
  "forder": 1884,
  "ämp": 1885,
  "human": 1886,
  "hip": 1887,
  "porteur": 1888,
  "jahre": 1889,
  "kun": 1890,
  "n,ĠdaßĠdie": 1891,
  "Ġsti": 1892,
  "arante": 1893,
  "reportĠ": 1894,
  "lose": 1895,
  "Ġposition": 1896,
  "Ġrespon": 1897,
  "ness": 1898,
  "wieder": 1899,
  "rel": 1900,
  "ttbewer": 1901,
  "chan": 1902,
  "organis": 1903,
  "maßnahmenĠ": 1904,
  "europäischenĠparlament": 1905,
  "bau": 1906,
  "vonĠder": 1907,
  "bestimm": 1908,
  "cus": 1909,
  "ĠmakeĠ": 1910,
  "ĠsomeĠ": 1911,
  "thisĠisĠ": 1912,
  "Ġthose": 1913,
  "particularlyĠ": 1914,
  "zah": 1915,
  "eilĠ": 1916,
  "häng": 1917,
  "Ġsuch": 1918,
  "kommiss": 1919,
  "sitive": 1920,
  "jus": 1921,
  "l,Ġ": 1922,
  "jor": 1923,
  "cy,Ġ": 1924,
  "theĠcommissio": 1925,
  "merĠ": 1926,
  "itiative": 1927,
  "ussion": 1928,
  "ĠanyĠ": 1929,
  "bewerb": 1930,
  "zugĠ": 1931,
  "how": 1932,
  "damental": 1933,
  "Ġneed": 1934,
  "wah": 1935,
  "ĠdieĠkommissionĠ": 1936,
  "intere": 1937,
  "Ġbetween": 1938,
  "fulĠ": 1939,
  "Ġgroup": 1940,
  "gebie": 1941,
  "Ġiniti": 1942,
  "lungenĠ": 1943,
  "gegen": 1944,
  "gress": 1945,
  "ome": 1946,
  "umberĠ": 1947,
  "Ġcitizen": 1948,
  "zuĠer": 1949,
  "licher": 1950,
  "gen.": 1951,
  "proz": 1952,
  "ttbewerb": 1953,
  "group": 1954,
  "vertra": 1955,
  "verfah": 1956,
  "besser": 1957,
  "vest": 1958,
  "undheit": 1959,
  "blick": 1960,
  "berich": 1961,
  "portun": 1962,
  "kingĠ": 1963,
  "gyĠ": 1964,
  "hyĠ": 1965,
  "Ġdirective": 1966,
  "disc": 1967,
  "Ġwä": 1968,
  "punktĠ": 1969,
  "car": 1970,
  "damĠ": 1971,
  "roughĠ": 1972,
  "schied": 1973,
  "grenz": 1974,
  "allsĠ": 1975,
  "undĠderĠ": 1976,
  "gege": 1977,
  "yingĠ": 1978,
  "economic": 1979,
  "sitz": 1980,
  "erungĠderĠ": 1981,
  "uf": 1982,
  "kämp": 1983,
  "ihrerĠ": 1984,
  "Ġwurde": 1985,
  "stri": 1986,
  "haltenĠ": 1987,
  "ation.": 1988,
  "fac": 1989,
  "s'": 1990,
  "anderenĠ": 1991,
  "tesĠ": 1992,
  "Ġsel": 1993,
  "Ġtech": 1994,
  "Ġdo": 1995,
  "Ġon": 1996,
  "gestell": 1997,
  "ellenĠ": 1998,
  "schlä": 1999,
  "social": 2000,
  "ĠintoĠ": 2001,
  "nlyĠ": 2002,
  "gsĠ": 2003,
  "Ġma": 2004,
  "Ġgle": 2005,
  "than": 2006,
  "onĠbehalfĠofĠthe": 2007,
  "w.": 2008,
  "notwend": 2009,
  "Ġeuropa": 2010,
  "ule": 2011,
  "isionĠ": 2012,
  ",Ġfor": 2013,
  "Ġcourse": 2014,
  "urther": 2015,
  "gebe": 2016,
  "Ġmöglich": 2017,
  "Ġro": 2018,
  "medi": 2019,
  "Ġaction": 2020,
  "ishĠ": 2021,
  "ĠifĠ": 2022,
  "umĠdieĠ": 2023,
  "heute": 2024,
  "tak": 2025,
  "justĠ": 2026,
  "thereĠis": 2027,
  "mrsĠ": 2028,
  "Ġthink": 2029,
  "ical": 2030,
  "ĠtheĠcon": 2031,
  "someĠ": 2032,
  "avour": 2033,
  "möchteĠich": 2034,
  "reiche": 2035,
  ",ĠwennĠ": 2036,
  "og": 2037,
  "isĠa": 2038,
  "toĠa": 2039,
  "ĠcommitteeĠon": 2040,
  "ferenz": 2041,
  "folge": 2042,
  "tĠhabe": 2043,
  "ĠderĠver": 2044,
  "mework": 2045,
  "Ġamend": 2046,
  "wa": 2047,
  "lichkeitĠ": 2048,
  "sicherheit": 2049,
  "bede": 2050,
  "rechts": 2051,
  "Ġend": 2052,
  "ausschuß": 2053,
  "fromĠtheĠ": 2054,
  "ffective": 2055,
  "Ġuse": 2056,
  "beis": 2057,
  "zusammenarbeit": 2058,
  "mitĠdemĠ": 2059,
  "Ġdra": 2060,
  "hne": 2061,
  "mplement": 2062,
  "adop": 2063,
  "first": 2064,
  "actĠthat": 2065,
  "Ġkönne": 2066,
  "ganz": 2067,
  "van": 2068,
  "table": 2069,
  "ĠonlyĠ": 2070,
  "mean": 2071,
  "fest": 2072,
  "spie": 2073,
  "entwicklungĠ": 2074,
  "'sĠ": 2075,
  "diesen": 2076,
  "Ġens": 2077,
  "suchĠasĠ": 2078,
  "makeĠ": 2079,
  "msĠof": 2080,
  "ĠdiesesĠ": 2081,
  "richtlinieĠ": 2082,
  "keine": 2083,
  "Ġmat": 2084,
  "demokra": 2085,
  "ispie": 2086,
  "n:": 2087,
  "wach": 2088,
  "Ġbring": 2089,
  "ownĠ": 2090,
  "Ġmeasures": 2091,
  "Ġzusammen": 2092,
  "halts": 2093,
  "urityĠ": 2094,
  "n,Ġder": 2095,
  "Ġsicher": 2096,
  "n,Ġda": 2097,
  "har": 2098,
  "europa": 2099,
  "kolle": 2100,
  "selbst": 2101,
  "Ġpublic": 2102,
  "llyĠ": 2103,
  "shouldĠbe": 2104,
  "Ġquestion": 2105,
  "bit": 2106,
  "n,ĠumĠ": 2107,
  "tlyĠ": 2108,
  "tureĠ": 2109,
  "ĠsehrĠ": 2110,
  "iv": 2111,
  "Ġwirk": 2112,
  "satz": 2113,
  "redĠ": 2114,
  "Ġbecause": 2115,
  "political": 2116,
  "bild": 2117,
  "Ġmitte": 2118,
  "dra": 2119,
  "min": 2120,
  "ultural": 2121,
  "ument": 2122,
  "fürĠdenĠ": 2123,
  "mittelĠ": 2124,
  "Ġbudge": 2125,
  "manyĠ": 2126,
  "ĠwillĠbeĠ": 2127,
  "effec": 2128,
  "edom": 2129,
  "Ġsozial": 2130,
  "fle": 2131,
  "Ġganz": 2132,
  "beding": 2133,
  "haushal": 2134,
  "Ġhig": 2135,
  "concer": 2136,
  "Ġbelieve": 2137,
  "edĠinĠ": 2138,
  "institution": 2139,
  "nichtĠnur": 2140,
  "nenĠundĠ": 2141,
  "recht": 2142,
  "jek": 2143,
  "bour": 2144,
  "sinceĠ": 2145,
  "Ġlan": 2146,
  "tänd": 2147,
  "part": 2148,
  "low": 2149,
  "Ġthese": 2150,
  "ĠtheĠcom": 2151,
  "Ġmach": 2152,
  "beispie": 2153,
  "inĠdiesemĠ": 2154,
  "alis": 2155,
  "Ġgener": 2156,
  "n,ĠdassĠ": 2157,
  "ĠsupportĠ": 2158,
  "position": 2159,
  "mind": 2160,
  "rechtĠ": 2161,
  "Ġgesch": 2162,
  "Ġstre": 2163,
  "ĠwirdĠ": 2164,
  "sul": 2165,
  "munic": 2166,
  "iedĠ": 2167,
  "lü": 2168,
  "gesch": 2169,
  "ls": 2170,
  "Ġhel": 2171,
  "Ġmuß": 2172,
  "ersĠ": 2173,
  "bilityĠ": 2174,
  "tition": 2175,
  "arious": 2176,
  "ĠtakeĠ": 2177,
  "tĠwurde": 2178,
  "eute": 2179,
  "n,Ġwie": 2180,
  "large": 2181,
  "Ġdemoc": 2182,
  "n'Ġs": 2183,
  "würde": 2184,
  "fasse": 2185,
  "eff": 2186,
  "Ġkommissio": 2187,
  "bu": 2188,
  "bersĠ": 2189,
  "cess": 2190,
  "iĠamĠ": 2191,
  "dersĠ": 2192,
  "sy": 2193,
  "kontro": 2194,
  "ocra": 2195,
  "komme": 2196,
  "Ġson": 2197,
  "eĠthat": 2198,
  "sens": 2199,
  "tlicheĠ": 2200,
  "ünf": 2201,
  "ĠsowieĠ": 2202,
  "Ġlegal": 2203,
  "certain": 2204,
  "both": 2205,
  "ef": 2206,
  "ibtĠ": 2207,
  "Ġfü": 2208,
  "etztĠ": 2209,
  "jen": 2210,
  "Ġzwi": 2211,
  "underĠ": 2212,
  "ĠtheĠf": 2213,
  "ntwor": 2214,
  "ehe": 2215,
  "zun": 2216,
  "beste": 2217,
  "gest": 2218,
  "gabe": 2219,
  "ĠzuĠver": 2220,
  "Ġknow": 2221,
  "ural": 2222,
  "withĠregar": 2223,
  "ofĠcourse": 2224,
  "iere": 2225,
  "teili": 2226,
  "Ġimplement": 2227,
  "Ġcommun": 2228,
  "ĠwayĠ": 2229,
  "Ġrem": 2230,
  "dig": 2231,
  "sig": 2232,
  "Ġfrage": 2233,
  "Ġfirst": 2234,
  "Ġtreat": 2235,
  "werĠ": 2236,
  "ĠaboutĠ": 2237,
  "ĠtheirĠ": 2238,
  "Ġagainst": 2239,
  "ĠihrerĠ": 2240,
  ",Ġda": 2241,
  "ltĠ": 2242,
  "kämpf": 2243,
  "gewi": 2244,
  "ally,Ġ": 2245,
  "gib": 2246,
  "ohne": 2247,
  "Ġplan": 2248,
  "abgeordne": 2249,
  "ös": 2250,
  "gesam": 2251,
  "unterstütz": 2252,
  "Ġdemocra": 2253,
  "sa": 2254,
  "Ġimme": 2255,
  "ce,Ġ": 2256,
  "Ġpla": 2257,
  "umberĠof": 2258,
  "gram": 2259,
  "ĠundĠder": 2260,
  "enĠder": 2261,
  "esĠand": 2262,
  "ty,Ġ": 2263,
  "rupp": 2264,
  "vorschlagĠ": 2265,
  "ĠhierĠ": 2266,
  "ines": 2267,
  "made": 2268,
  "uer": 2269,
  "Ġwicht": 2270,
  "hör": 2271,
  "luding": 2272,
  "esĠnotĠ": 2273,
  "esta": 2274,
  "änderungsant": 2275,
  "gesell": 2276,
  "doch": 2277,
  "ferenceĠ": 2278,
  "goti": 2279,
  "progra": 2280,
  "för": 2281,
  "eĠundĠ": 2282,
  "mitĠdenĠ": 2283,
  "initiative": 2284,
  "she": 2285,
  "tabli": 2286,
  "far": 2287,
  "policyĠ": 2288,
  "lossen": 2289,
  "Ġlegisl": 2290,
  "nisĠ": 2291,
  "bereitsĠ": 2292,
  "Ġresul": 2293,
  "ban": 2294,
  "tterĠ": 2295,
  "thatĠisĠ": 2296,
  "Ġareas": 2297,
  "wardsĠ": 2298,
  "ausschussesĠfürĠ": 2299,
  "Ġregional": 2300,
  "Ġpra": 2301,
  "sĠtheĠ": 2302,
  "struktur": 2303,
  "ĠproblemĠ": 2304,
  "ationĠin": 2305,
  "Ġra": 2306,
  "Ġclear": 2307,
  "Ġadop": 2308,
  "ĠthanĠ": 2309,
  "Ġprin": 2310,
  "withinĠthe": 2311,
  "theĠeuropeanĠunion": 2312,
  "()ĠĠ": 2313,
  "Ġinitiative": 2314,
  "main": 2315,
  "posedĠ": 2316,
  "wo": 2317,
  "gt,Ġ": 2318,
  "Ġanderen": 2319,
  "m,Ġ": 2320,
  "Ġhis": 2321,
  "fficul": 2322,
  "ßeĠ": 2323,
  "fürĠeine": 2324,
  "person": 2325,
  "gar": 2326,
  "ĠwennĠ": 2327,
  "Ġgre": 2328,
  "afe": 2329,
  "committe": 2330,
  "withoutĠ": 2331,
  "durchĠdie": 2332,
  "Ġübe": 2333,
  "genom": 2334,
  "ischerei": 2335,
  "Ġdel": 2336,
  "notĠbe": 2337,
  "need": 2338,
  "inclu": 2339,
  "tend": 2340,
  "desĠratesĠ": 2341,
  "zep": 2342,
  "röß": 2343,
  "deshalb": 2344,
  "zeich": 2345,
  "grap": 2346,
  "view": 2347,
  "ĠtoĠre": 2348,
  "ĠatĠtheĠ": 2349,
  "tungs": 2350,
  "aufĠderĠ": 2351,
  "unsererĠ": 2352,
  "possible": 2353,
  "ĠtheĠcouncilĠ": 2354,
  "denenĠ": 2355,
  "Ġak": 2356,
  "braucher": 2357,
  "Ġris": 2358,
  "woll": 2359,
  "Ġperson": 2360,
  "e,ĠdieĠ": 2361,
  "beschäftig": 2362,
  "Ġaussch": 2363,
  "Ġsoll": 2364,
  "nch": 2365,
  "Ġapp": 2366,
  "ĠhumanĠright": 2367,
  "itiesĠ": 2368,
  "Ġthat,Ġ": 2369,
  "stand": 2370,
  "Ġkoll": 2371,
  "Ġstru": 2372,
  "ress": 2373,
  "Ġbeste": 2374,
  "antĠto": 2375,
  "sĠandĠtheĠ": 2376,
  "bis": 2377,
  "nen": 2378,
  "ht,Ġ": 2379,
  "solution": 2380,
  "specific": 2381,
  "Ġprinciple": 2382,
  "igerĠ": 2383,
  "fach": 2384,
  "kommissar": 2385,
  "Ġpor": 2386,
  "overĠ": 2387,
  "president": 2388,
  "Ġsame": 2389,
  "sĠon": 2390,
  "environment": 2391,
  "zeitĠ": 2392,
  "itor": 2393,
  "givenĠ": 2394,
  "ĠwellĠ": 2395,
  "prove": 2396,
  "iderĠ": 2397,
  "hinblick": 2398,
  "zusammenhang": 2399,
  "esĠist": 2400,
  "fordert": 2401,
  "Ġkeine": 2402,
  "yp": 2403,
  "Ġservic": 2404,
  "light": 2405,
  "ollo": 2406,
  "establi": 2407,
  "iĠwouldĠlikeĠto": 2408,
  "tĠto": 2409,
  "geleg": 2410,
  "weilĠ": 2411,
  "namenĠdesĠ": 2412,
  "ĠmitĠder": 2413,
  "tigkeitĠ": 2414,
  "ulti": 2415,
  "ĠgegenĠ": 2416,
  "Ġben": 2417,
  "Ġeines": 2418,
  "vonĠden": 2419,
  "Ġmed": 2420,
  "ishe": 2421,
  "ementsĠ": 2422,
  "cip": 2423,
  "Ġkri": 2424,
  "tle": 2425,
  "ĠeuropäischeĠparlament": 2426,
  "treat": 2427,
  "Ġprotection": 2428,
  "Ġfinancial": 2429,
  "tative": 2430,
  "aktion": 2431,
  "ciallyĠ": 2432,
  "eĠofĠthe": 2433,
  "merk": 2434,
  "für": 2435,
  "wärt": 2436,
  "lobal": 2437,
  "politische": 2438,
  "hile": 2439,
  "withĠa": 2440,
  "Ġpoin": 2441,
  "haveĠbeen": 2442,
  "in,Ġ": 2443,
  "auchĠdie": 2444,
  "lein": 2445,
  "jedoch": 2446,
  "dre": 2447,
  "leve": 2448,
  "zuĠbe": 2449,
  "derenĠ": 2450,
  "quen": 2451,
  "ĠhabenĠ": 2452,
  "Ġimportant": 2453,
  "ĠsayĠ": 2454,
  "cogni": 2455,
  "vertre": 2456,
  "antwor": 2457,
  "strate": 2458,
  "Ġprior": 2459,
  "ĠbeiĠder": 2460,
  "elĠ": 2461,
  "seit": 2462,
  "ĠandĠi": 2463,
  "ĠhasĠbeen": 2464,
  "sollte": 2465,
  "enĠzu": 2466,
  "ĠihnenĠ": 2467,
  "visionĠ": 2468,
  "Ġrec": 2469,
  "structur": 2470,
  "ĠandĠg": 2471,
  "ĠmarketĠ": 2472,
  "stehe": 2473,
  "politischenĠ": 2474,
  "fraktion": 2475,
  "ft": 2476,
  "rge": 2477,
  "mich": 2478,
  "ration": 2479,
  "voĠ": 2480,
  "Ġcommissio": 2481,
  "uringĠ": 2482,
  "selve": 2483,
  "schriftenĠ": 2484,
  "regel": 2485,
  "fon": 2486,
  "Ġstell": 2487,
  "ableĠtoĠ": 2488,
  "ĠthatĠwe": 2489,
  "Ġsha": 2490,
  "ĠalreadyĠ": 2491,
  "bution": 2492,
  "forde": 2493,
  "Ġrespe": 2494,
  "Ġfar": 2495,
  "ce": 2496,
  "inĠorderĠto": 2497,
  "mayĠ": 2498,
  "fferentĠ": 2499,
  "sind.": 2500,
  "char": 2501,
  "sichtig": 2502,
  "zwar": 2503,
  "paren": 2504,
  "umwelt": 2505,
  "Ġländer": 2506,
  "treme": 2507,
  "Ġnow": 2508,
  "lon": 2509,
  "nce,Ġ": 2510,
  "question": 2511,
  "development": 2512,
  "n,ĠwennĠ": 2513,
  "ungss": 2514,
  "Ġbestimm": 2515,
  "Ġstand": 2516,
  "ile": 2517,
  "Ġresolution": 2518,
  "Ġwhole": 2519,
  "s,Ġwhich": 2520,
  "Ġtun": 2521,
  "arbeits": 2522,
  "treffen": 2523,
  "ĠbereitsĠ": 2524,
  "freiheit": 2525,
  "accep": 2526,
  "vious": 2527,
  "Ġresponsi": 2528,
  "against": 2529,
  "gether": 2530,
  "uli": 2531,
  ",ĠweilĠ": 2532,
  "mu": 2533,
  "ebe": 2534,
  "Ġfinanzie": 2535,
  "arge": 2536,
  "Ġhealth": 2537,
  "fan": 2538,
  "prü": 2539,
  "nämlich": 2540,
  "iten": 2541,
  "ministra": 2542,
  "ĠoutĠ": 2543,
  "Ġcomp": 2544,
  "Ġpossible": 2545,
  "Ġestab": 2546,
  "ĠinĠthis": 2547,
  "verkehrĠ": 2548,
  "ĠcĠĠ(co": 2549,
  "Ġfest": 2550,
  "ip": 2551,
  "amili": 2552,
  "bili": 2553,
  "nisseĠ": 2554,
  "währ": 2555,
  "rleis": 2556,
  "teilĠ": 2557,
  "ĠmöchteĠich": 2558,
  "hinder": 2559,
  "nun": 2560,
  "cre": 2561,
  "ĠwhenĠ": 2562,
  "wier": 2563,
  "ĠsondernĠ": 2564,
  "ffĠ": 2565,
  "ausdruck": 2566,
  "ele": 2567,
  "arch": 2568,
  "hous": 2569,
  "allĠtheĠ": 2570,
  "batte": 2571,
  "regional": 2572,
  "ĠmehrĠ": 2573,
  "insbesondere": 2574,
  "sier": 2575,
  "geführt": 2576,
  "Ġreal": 2577,
  "sischenĠ": 2578,
  "mitglied": 2579,
  "ffer": 2580,
  "ürk": 2581,
  "dĠtoĠthe": 2582,
  "supportĠ": 2583,
  "konferenz": 2584,
  "n,Ġwas": 2585,
  "bezieh": 2586,
  "ĠmaßnahmenĠ": 2587,
  "anie": 2588,
  "vidu": 2589,
  "ordin": 2590,
  "Ġth": 2591,
  "andĠto": 2592,
  "ĠtheĠcommissio": 2593,
  "dĠtheĠ": 2594,
  "Ġbal": 2595,
  "thereforeĠ": 2596,
  "implement": 2597,
  "ismĠ": 2598,
  "Ġför": 2599,
  "Ġeff": 2600,
  "nteĠ": 2601,
  "betriff": 2602,
  "Ġsen": 2603,
  "chanis": 2604,
  "dis": 2605,
  "gesundheit": 2606,
  "mar": 2607,
  "well": 2608,
  "espe": 2609,
  "Ġpresent": 2610,
  "Ġobjective": 2611,
  "Ġarea": 2612,
  "ĠmayĠ": 2613,
  "enĠver": 2614,
  "kannĠ": 2615,
  "kin": 2616,
  "however,Ġ": 2617,
  "ĠwithinĠ": 2618,
  "theĠcommitte": 2619,
  "eĠtheĠ": 2620,
  "tĠwerden.": 2621,
  "ungenĠderĠ": 2622,
  "ĠmitĠden": 2623,
  "kte": 2624,
  "bank": 2625,
  "t,ĠundĠ": 2626,
  "ĠcommissionĠ": 2627,
  "ĠmanyĠ": 2628,
  "Ġmean": 2629,
  "ränk": 2630,
  "Ġpolitik": 2631,
  "abhäng": 2632,
  "ĠerĠ": 2633,
  "fes": 2634,
  "menschenrechte": 2635,
  "mentĠofĠ": 2636,
  "Ġauthor": 2637,
  "ĠderĠt": 2638,
  "rteĠ": 2639,
  "ĠdaraufĠ": 2640,
  "ung,ĠdieĠ": 2641,
  "debat": 2642,
  "Ġgegen": 2643,
  "mitgliedstaat": 2644,
  "ĠnichtĠnur": 2645,
  "indĠ": 2646,
  "Ġvol": 2647,
  "fli": 2648,
  "Ġcas": 2649,
  "second": 2650,
  "responsi": 2651,
  "verantwor": 2652,
  "währleis": 2653,
  "Ġgemeinsame": 2654,
  "haup": 2655,
  "hel": 2656,
  "ĠbyĠtheĠ": 2657,
  "measures": 2658,
  "utlich": 2659,
  "verständ": 2660,
  "zweit": 2661,
  "sach": 2662,
  "standĠ": 2663,
  "Ġable": 2664,
  "rap": 2665,
  ",Ġ,Ġ": 2666,
  "Ġrap": 2667,
  "houtĠ": 2668,
  "Ġbis": 2669,
  "tĠzu": 2670,
  "führungĠ": 2671,
  "meineĠ": 2672,
  "into": 2673,
  "entle": 2674,
  "ed,Ġ": 2675,
  "asĠthe": 2676,
  "ĠdoĠnotĠ": 2677,
  "Ġincreas": 2678,
  "Ġist,Ġ": 2679,
  "Ġhar": 2680,
  "seitsĠ": 2681,
  "sam": 2682,
  "althoughĠ": 2683,
  "dri": 2684,
  "finde": 2685,
  "glichen": 2686,
  "Ġmor": 2687,
  "tens": 2688,
  "tedĠbyĠ": 2689,
  "poin": 2690,
  "Ġdiscus": 2691,
  "ship": 2692,
  "entscheid": 2693,
  "dannĠ": 2694,
  "Ġaspe": 2695,
  "throughĠ": 2696,
  "ason": 2697,
  "ĠensureĠ": 2698,
  "ureĠthat": 2699,
  "ĠdiesĠ": 2700,
  "Ġunserer": 2701,
  "greif": 2702,
  "änderungsanträge": 2703,
  "Ġsage": 2704,
  "neuen": 2705,
  "bur": 2706,
  "ĠalleĠ": 2707,
  "ror": 2708,
  "betweenĠthe": 2709,
  "na": 2710,
  "finanzie": 2711,
  "Ġgleich": 2712,
  "hat.": 2713,
  "pl": 2714,
  "Ġhop": 2715,
  "ĠofĠthis": 2716,
  "Ġemployment": 2717,
  "Ġconsi": 2718,
  "proposal": 2719,
  "s,ĠtheĠ": 2720,
  "Ġjedoch": 2721,
  "ĠdiesenĠ": 2722,
  "egin": 2723,
  "Ġinsbesondere": 2724,
  "Ġhande": 2725,
  "Ġredu": 2726,
  "democra": 2727,
  "gemeinsamenĠ": 2728,
  "schaff": 2729,
  "Ġstrate": 2730,
  "sind,Ġ": 2731,
  ",ĠdenĠ": 2732,
  "Ġportu": 2733,
  "sovoĠ": 2734,
  "eting": 2735,
  "afterĠ": 2736,
  "very": 2737,
  ",ĠwhichĠisĠ": 2738,
  "ĠweĠhave": 2739,
  "Ġissues": 2740,
  "Ġprovide": 2741,
  "bleĠtoĠ": 2742,
  "äh": 2743,
  "Ġjahre": 2744,
  "ju": 2745,
  "ĠinĠdieĠ": 2746,
  "ĠvorĠallem": 2747,
  "Ġcar": 2748,
  "Ġexpres": 2749,
  "ĠthereforeĠ": 2750,
  "diesĠandĠg": 2751,
  "especiallyĠ": 2752,
  "presentative": 2753,
  "ĠrichtlinieĠ": 2754,
  "Ġheute": 2755,
  "rang": 2756,
  "end": 2757,
  "Ġnotwend": 2758,
  "ates": 2759,
  "ask": 2760,
  "selfĠ": 2761,
  "diesĠandĠgentle": 2762,
  "posalsĠ": 2763,
  "auer": 2764,
  "prochen": 2765,
  "allenĠ": 2766,
  "wüns": 2767,
  "antragĠ": 2768,
  "Ġera": 2769,
  "et,Ġ": 2770,
  "fragenĠ": 2771,
  "cour": 2772,
  "Ġrule": 2773,
  "kunftĠ": 2774,
  "Ġmüssen": 2775,
  "genĠundĠ": 2776,
  "Ġrei": 2777,
  "tere": 2778,
  "ĠmitĠdem": 2779,
  "tori": 2780,
  "Ġcommon": 2781,
  "portu": 2782,
  "budge": 2783,
  "weĠmustĠ": 2784,
  "ĠvonĠder": 2785,
  "ĠaufĠdenĠ": 2786,
  "terstat": 2787,
  "genden": 2788,
  "rahmenĠderĠ": 2789,
  "legisl": 2790,
  "Ġproces": 2791,
  "ading": 2792,
  "hasĠbeen": 2793,
  "tremelyĠ": 2794,
  "eignĠ": 2795,
  "tenĠderĠ": 2796,
  "zwischenĠ": 2797,
  "torsĠ": 2798,
  "ries": 2799,
  "usines": 2800,
  "Ġtaken": 2801,
  "sĠtoĠbeĠ": 2802,
  "ĠeuropeĠ": 2803,
  "ĠcouldĠ": 2804,
  "Ġwah": 2805,
  "namenĠdesĠausschussesĠfürĠ": 2806,
  "Ġhal": 2807,
  "können.": 2808,
  "geht": 2809,
  "grundlage": 2810,
  "Ġindus": 2811,
  "much": 2812,
  "portsĠ": 2813,
  "berichter": 2814,
  "weni": 2815,
  "Ġpart": 2816,
  "ing,Ġ": 2817,
  "indi": 2818,
  "industri": 2819,
  "volve": 2820,
  "mustĠbe": 2821,
  "know": 2822,
  "ationĠto": 2823,
  "tĠdieĠ": 2824,
  "Ġgemeinschaf": 2825,
  "natürlich": 2826,
  "Ġener": 2827,
  "schläge": 2828,
  "Ġselbst": 2829,
  "disk": 2830,
  "tage": 2831,
  "sha": 2832,
  "change": 2833,
  "ĠasĠa": 2834,
  "ried": 2835,
  "minal": 2836,
  "zwei": 2837,
  "zuĠden": 2838,
  "häl": 2839,
  "gi": 2840,
  "libera": 2841,
  "ific": 2842,
  "Ġletz": 2843,
  "stimmungĠ": 2844,
  "eĠderĠ": 2845,
  "den": 2846,
  "lsweiseĠ": 2847,
  "nich": 2848,
  "tetĠ": 2849,
  "ten,Ġdie": 2850,
  "Ġqual": 2851,
  ",Ġa": 2852,
  "berichterstat": 2853,
  "en,ĠundĠ": 2854,
  "inĠf": 2855,
  "inĠdie": 2856,
  "generalĠ": 2857,
  "again": 2858,
  "ladiesĠandĠgentle": 2859,
  "Ġagric": 2860,
  "ticip": 2861,
  "ĠweĠareĠ": 2862,
  "presentĠ": 2863,
  "ĠvonĠherrnĠ": 2864,
  "aufĠdemĠ": 2865,
  "Ġmensche": 2866,
  "anĠdie": 2867,
  "daraufĠ": 2868,
  "ĠherrĠ": 2869,
  "Ġeige": 2870,
  "lastĠ": 2871,
  "Ġ'": 2872,
  "ĠfromĠtheĠ": 2873,
  "diesĠandĠgentlemen,": 2874,
  "try,Ġ": 2875,
  "provide": 2876,
  "sĠtoĠthe": 2877,
  "Ġmost": 2878,
  "grupp": 2879,
  "Ġsicherheit": 2880,
  "landwirtschaf": 2881,
  "Ġzwische": 2882,
  "sek": 2883,
  "Ġmitgliedstaat": 2884,
  "Ġlibera": 2885,
  "Ġframework": 2886,
  "Ġspecific": 2887,
  "commissioner": 2888,
  "forĠa": 2889,
  "ĠshouldĠbe": 2890,
  "ĠneedĠtoĠ": 2891,
  "monis": 2892,
  "zo": 2893,
  "Ġschaff": 2894,
  "ts.": 2895,
  "sätz": 2896,
  "ĠrechtĠ": 2897,
  "ĠnumberĠof": 2898,
  "couldĠ": 2899,
  "ĠwereĠ": 2900,
  "way": 2901,
  "Ġconti": 2902,
  "ĠandĠsocial": 2903,
  "fficient": 2904,
  "ollowing": 2905,
  "Ġwird,Ġ": 2906,
  "twoĠ": 2907,
  "subjec": 2908,
  "ited": 2909,
  "proces": 2910,
  "iz": 2911,
  ",ĠsondernĠ": 2912,
  "zeitigĠ": 2913,
  "nische": 2914,
  "n,ĠdennĠ": 2915,
  "meiner": 2916,
  "werden.": 2917,
  "Ġzwei": 2918,
  "Ġfol": 2919,
  "ctiv": 2920,
  "Ġconsu": 2921,
  "ĠagreementĠ": 2922,
  "ĠallĠthe": 2923,
  "enĠ": 2924,
  "öster": 2925,
  "ener": 2926,
  "Ġoper": 2927,
  "wettbewerb": 2928,
  "rter": 2929,
  "increas": 2930,
  "clus": 2931,
  "ove": 2932,
  "ĠinĠdiesem": 2933,
  "dazu": 2934,
  "ternĠ": 2935,
  "verwal": 2936,
  "ächst": 2937,
  "ks": 2938,
  "zelnenĠ": 2939,
  "bürgerĠ": 2940,
  "Ġjus": 2941,
  "egal": 2942,
  "Ġvom": 2943,
  "ĠfürĠdenĠ": 2944,
  "legenheit": 2945,
  "ĠentwicklungĠ": 2946,
  "prio": 2947,
  "Ġallen": 2948,
  "eß": 2949,
  "dieĠeuropäischeĠ": 2950,
  "aftĠ": 2951,
  "ĠimmerĠ": 2952,
  "gangĠ": 2953,
  "dyĠ": 2954,
  "Ġsig": 2955,
  "tif": 2956,
  "dienst": 2957,
  "außer": 2958,
  "übri": 2959,
  "lungĠderĠ": 2960,
  "still": 2961,
  "Ġopportun": 2962,
  "ulations": 2963,
  "ladiesĠandĠgentlemen,": 2964,
  "fallĠ": 2965,
  "eind": 2966,
  "viele": 2967,
  "tischĠ": 2968,
  "eb": 2969,
  "Ġregie": 2970,
  "under": 2971,
  "Ġgeneral": 2972,
  "Ġregul": 2973,
  "ĠwhichĠisĠ": 2974,
  "theĠreportĠ": 2975,
  "Ġrequire": 2976,
  "Ġnec": 2977,
  "affair": 2978,
  "dĠbyĠ": 2979,
  "sayĠ": 2980,
  "uris": 2981,
  "troffen": 2982,
  "österre": 2983,
  "Ġbasis": 2984,
  "Ġsol": 2985,
  "rord": 2986,
  "hmenĠ": 2987,
  "Ġcompe": 2988,
  "ingĠa": 2989,
  "ĠdebateĠ": 2990,
  "downĠ": 2991,
  "chieve": 2992,
  "further": 2993,
  "nungs": 2994,
  "Ġho": 2995,
  "Ġeinmal": 2996,
  "genommenĠ": 2997,
  "ĠbürgerĠ": 2998,
  "Ġbeson": 2999,
  "wissen": 3000,
  "san": 3001,
  "reicht": 3002,
  "Ġproced": 3003,
  "madamĠ": 3004,
  "conside": 3005,
  "notĠonlyĠ": 3006,
  "Ġreason": 3007,
  "züglich": 3008,
  "folgtĠ": 3009,
  "ebenĠ": 3010,
  "ffass": 3011,
  "endenĠ": 3012,
  "Ġregions": 3013,
  "veror": 3014,
  "okra": 3015,
  "Ġnor": 3016,
  "ctedĠ": 3017,
  "onĠbehalfĠofĠtheĠcommitteeĠon": 3018,
  "Ġwhere": 3019,
  "prec": 3020,
  ",ĠdaßĠwirĠ": 3021,
  "ktĠ": 3022,
  "Ġrechts": 3023,
  "dnungĠ": 3024,
  "Ġstill": 3025,
  "iĠshouldĠ": 3026,
  "beforeĠ": 3027,
  "tionĠofĠ": 3028,
  "ources": 3029,
  "verfahrenĠ": 3030,
  "vere": 3031,
  "lasse": 3032,
  "undert": 3033,
  "äußer": 3034,
  "Ġohne": 3035,
  "defin": 3036,
  "rus": 3037,
  "commend": 3038,
  "cingĠ": 3039,
  "Ġresour": 3040,
  "s:": 3041,
  "aßnahme": 3042,
  "heb": 3043,
  "inde": 3044,
  "ĠsituationĠ": 3045,
  "ĠundĠver": 3046,
  "tsĠof": 3047,
  "whyĠ": 3048,
  "ĠshouldĠlikeĠto": 3049,
  "(a)ĠbyĠ": 3050,
  ",ĠinĠthe": 3051,
  "ecess": 3052,
  "Ġnecess": 3053,
  "orderĠto": 3054,
  "erforder": 3055,
  "vorschriftenĠ": 3056,
  "nischenĠ": 3057,
  "Ġele": 3058,
  "leit": 3059,
  "verschieden": 3060,
  "psĠ": 3061,
  "law": 3062,
  "ĠtwoĠ": 3063,
  "effective": 3064,
  "compe": 3065,
  "ĠmustĠbe": 3066,
  "wirklich": 3067,
  "berichtĠ(a)": 3068,
  "tĠhat,Ġ": 3069,
  "länd": 3070,
  "öffentlichen": 3071,
  "stu": 3072,
  "Ġinte": 3073,
  "gens": 3074,
  "ihrenĠ": 3075,
  "Ġfo": 3076,
  "proced": 3077,
  "whether": 3078,
  "ĠseinĠ": 3079,
  "nerhalb": 3080,
  "bereichĠderĠ": 3081,
  "sh": 3082,
  "l.": 3083,
  "dateĠ": 3084,
  "thatĠthisĠ": 3085,
  "Ġprojec": 3086,
  "thatĠthere": 3087,
  "nceĠof": 3088,
  "coming": 3089,
  "tieren": 3090,
  "gtenĠ": 3091,
  "jahrĠ": 3092,
  "gent": 3093,
  "streng": 3094,
  "kann.": 3095,
  "haushalts": 3096,
  "flu": 3097,
  "Ġgra": 3098,
  "a.": 3099,
  "dingĠthe": 3100,
  "edĠonĠ": 3101,
  "wäre": 3102,
  "fte": 3103,
  "Ġgebie": 3104,
  "schiedenen": 3105,
  "bind": 3106,
  "dür": 3107,
  "olog": 3108,
  "ke": 3109,
  "financial": 3110,
  "contro": 3111,
  "Ġmajor": 3112,
  "ĠĠand": 3113,
  "ĠissueĠ": 3114,
  "ĠsecurityĠ": 3115,
  "Ġfreedom": 3116,
  "räf": 3117,
  "Ġmein": 3118,
  "laube": 3119,
  "Ġet": 3120,
  "aufĠdenĠ": 3121,
  "tats": 3122,
  "Ġvoll": 3123,
  "es.": 3124,
  "fort": 3125,
  ",ĠsoĠ": 3126,
  "Ġwis": 3127,
  "iste": 3128,
  "nologie": 3129,
  "Ġminis": 3130,
  "Ġdemokra": 3131,
  "legal": 3132,
  "ternal": 3133,
  "esĠofĠ": 3134,
  "ĠcooperationĠ": 3135,
  "mallĠ": 3136,
  "Ġchang": 3137,
  "Ġdevelop": 3138,
  "did": 3139,
  "weck": 3140,
  "denk": 3141,
  "urz": 3142,
  "allgemein": 3143,
  "inĠdem": 3144,
  "ĠzuĠer": 3145,
  "zurĠver": 3146,
  "technolo": 3147,
  "ax": 3148,
  "fischerei": 3149,
  "aila": 3150,
  "ĠpointĠ": 3151,
  "ĠandĠa": 3152,
  "ĠjustĠ": 3153,
  "zeichne": 3154,
  "nĠundĠdieĠ": 3155,
  "schein": 3156,
  "trument": 3157,
  "fo": 3158,
  "Ġdeal": 3159,
  "rather": 3160,
  "protection": 3161,
  "Ġboth": 3162,
  "ihnenĠ": 3163,
  "drück": 3164,
  "Ġdazu": 3165,
  "Ġsind,Ġ": 3166,
  "dank": 3167,
  "unktion": 3168,
  "Ġinstru": 3169,
  "assi": 3170,
  "sour": 3171,
  "prof": 3172,
  "Ġatte": 3173,
  "accoun": 3174,
  "principle": 3175,
  "afetyĠ": 3176,
  "ĠhaveĠbeen": 3177,
  "ĠwouldĠbe": 3178,
  "einige": 3179,
  "desĠeuropäischenĠparlament": 3180,
  "nfallsĠ": 3181,
  "nutz": 3182,
  "rbeit": 3183,
  "soli": 3184,
  "genan": 3185,
  "sische": 3186,
  "Ġebene": 3187,
  "appropri": 3188,
  "Ġestablis": 3189,
  "Ġgreater": 3190,
  "Ġrapporteur": 3191,
  "some": 3192,
  "citizen": 3193,
  "ĠunsereĠ": 3194,
  "iß": 3195,
  "anĠden": 3196,
  "Ġtre": 3197,
  "Ġhei": 3198,
  "dafürĠ": 3199,
  "ensĠ": 3200,
  "wareĠ": 3201,
  "day,Ġ": 3202,
  "tsĠandĠ": 3203,
  "opin": 3204,
  "Ġeri": 3205,
  "zw.": 3206,
  "n,ĠsondernĠ": 3207,
  "Ġwen": 3208,
  "kannt": 3209,
  ",ĠdaßĠesĠ": 3210,
  "erĠe": 3211,
  "real": 3212,
  "eth": 3213,
  "theĠnextĠ": 3214,
  "alreadyĠ": 3215,
  "Ġrelations": 3216,
  "ityĠof": 3217,
  "n,ĠweilĠ": 3218,
  "hen,": 3219,
  "Ġausge": 3220,
  "gabenĠ": 3221,
  "m.": 3222,
  "ĠinĠf": 3223,
  "Ġat": 3224,
  "ineĠ": 3225,
  "Ġparliament,Ġ": 3226,
  "contin": 3227,
  "Ġsecond": 3228,
  "inionĠ": 3229,
  "largement": 3230,
  "program": 3231,
  "erstat": 3232,
  "eichtĠ": 3233,
  "geordne": 3234,
  "ĠdieĠver": 3235,
  "ĠmichĠ": 3236,
  "ibe": 3237,
  "hol": 3238,
  "verpflich": 3239,
  "hördenĠ": 3240,
  "rten": 3241,
  "sive": 3242,
  "eas": 3243,
  "Ġactiv": 3244,
  "expres": 3245,
  "situationĠ": 3246,
  "Ġtex": 3247,
  "maß": 3248,
  "ume": 3249,
  "staaten": 3250,
  "kommens": 3251,
  "völker": 3252,
  "Ġdaß": 3253,
  "rungĠdesĠ": 3254,
  "resolution": 3255,
  "lea": 3256,
  "Ġinvest": 3257,
  "isĠnotĠ": 3258,
  "current": 3259,
  "Ġvote": 3260,
  "Ġfraktion": 3261,
  "ĠmirĠ": 3262,
  "genĠderĠ": 3263,
  "sowohlĠ": 3264,
  "Ġänder": 3265,
  "lichĠder": 3266,
  "är": 3267,
  "richte": 3268,
  "Ġzusammenarbeit": 3269,
  "erklä": 3270,
  "mb": 3271,
  "europeĠ": 3272,
  "offic": 3273,
  "Ġeconom": 3274,
  "sĠa": 3275,
  "Ġaff": 3276,
  "madamĠpresident,Ġ": 3277,
  "guarante": 3278,
  "tingĠthe": 3279,
  "Ġresources": 3280,
  "objective": 3281,
  "s,ĠbutĠ": 3282,
  "necess": 3283,
  "regulationĠ": 3284,
  "respectĠ": 3285,
  "hins": 3286,
  "vereinbar": 3287,
  "eginnenĠundĠ": 3288,
  "nenĠundĠkolle": 3289,
  "cen": 3290,
  "entsprechen": 3291,
  "probleme": 3292,
  "ĠvonĠden": 3293,
  "ttenĠ": 3294,
  "suchen": 3295,
  "problemĠ": 3296,
  "ĠfallĠ": 3297,
  "immerĠ": 3298,
  "Ġgrü": 3299,
  "Ġwes": 3300,
  "prozes": 3301,
  "feh": 3302,
  "Ġdri": 3303,
  "ion.": 3304,
  "jo": 3305,
  "isions": 3306,
  "Ġcontri": 3307,
  "ogu": 3308,
  "develop": 3309,
  "Ġdecis": 3310,
  "seineĠ": 3311,
  "gä": 3312,
  "ds,Ġ": 3313,
  "lauf": 3314,
  "hilfeĠ": 3315,
  "Ġrechte": 3316,
  "governmental": 3317,
  "telyĠ": 3318,
  "ed.": 3319,
  "ofĠcourse,Ġ": 3320,
  "inĠparticular": 3321,
  "Ġguarante": 3322,
  "makingĠ": 3323,
  "Ġander": 3324,
  "nzö": 3325,
  "Ġstä": 3326,
  "sierungĠ": 3327,
  "gemeinschaftĠ": 3328,
  "Ġlaw": 3329,
  "leĠ": 3330,
  "thin": 3331,
  "ĠhadĠ": 3332,
  "communityĠ": 3333,
  "ĠputĠ": 3334,
  "allerĠ": 3335,
  "lleichtĠ": 3336,
  "Ġkan": 3337,
  "ĠformĠ": 3338,
  "tĠwird,Ġ": 3339,
  "Ġentscheid": 3340,
  "item": 3341,
  "ĠevenĠ": 3342,
  "Ġsocie": 3343,
  "Ġwomen": 3344,
  "Ġenvironmental": 3345,
  "Ġacces": 3346,
  "nsicht": 3347,
  "nger": 3348,
  "zwischenĠdenĠ": 3349,
  "völkerungĠ": 3350,
  "nenmark": 3351,
  "malsĠ": 3352,
  "eginnenĠundĠkolle": 3353,
  "hinsicht": 3354,
  "priori": 3355,
  "ĠkannĠ": 3356,
  "außen": 3357,
  "itionĠ": 3358,
  "Ġtur": 3359,
  "forĠexample": 3360,
  "ĠinĠorderĠto": 3361,
  "Ġcur": 3362,
  "n,ĠdamitĠ": 3363,
  "schluß": 3364,
  "Ġberück": 3365,
  "lerĠ": 3366,
  "enĠsch": 3367,
  "bensoĠ": 3368,
  "Ġartik": 3369,
  "Ġeinige": 3370,
  "sage": 3371,
  "atis": 3372,
  "ssel": 3373,
  "rahmenĠ": 3374,
  "Ġval": 3375,
  "meer": 3376,
  "Ġpolitische": 3377,
  "lĠderĠ": 3378,
  "ibilityĠ": 3379,
  "Ġpolicy,Ġ": 3380,
  "uringĠtheĠ": 3381,
  "rapporteur": 3382,
  "ĠandĠs": 3383,
  "Ġmain": 3384,
  "Ġnegoti": 3385,
  "gueseĠ": 3386,
  "frieden": 3387,
  "rist": 3388,
  "ordini": 3389,
  "enth": 3390,
  "Ġhö": 3391,
  "Ġjo": 3392,
  "blig": 3393,
  "rael": 3394,
  "vidual": 3395,
  "onĠa": 3396,
  "thereĠareĠ": 3397,
  "ĠnecessaryĠ": 3398,
  ",ĠifĠ": 3399,
  "ĠihrenĠ": 3400,
  "ages": 3401,
  "verkehr": 3402,
  "raus": 3403,
  "Ġzah": 3404,
  "fähig": 3405,
  "emberĠ": 3406,
  "Ġhaus": 3407,
  "hadĠ": 3408,
  "ĠofĠtheĠeuropean": 3409,
  "canĠbeĠ": 3410,
  "pointĠ": 3411,
  "ityĠto": 3412,
  "ka": 3413,
  "richtungĠ": 3414,
  "prüf": 3415,
  "mirĠ": 3416,
  ",ĠaberĠ": 3417,
  "angesich": 3418,
  "aspe": 3419,
  "Ġberichterstat": 3420,
  "lück": 3421,
  "Ġgeht": 3422,
  "bun": 3423,
  "ler": 3424,
  "kultur": 3425,
  "amendment": 3426,
  "ĠofĠtheĠeuropeanĠunion": 3427,
  "agreementĠ": 3428,
  "iĠhave": 3429,
  ",ĠumĠ": 3430,
  "Ġwäre": 3431,
  "sichtsĠ": 3432,
  "tersĠ": 3433,
  "tex": 3434,
  "linien": 3435,
  "Ġbil": 3436,
  "priv": 3437,
  "keit,Ġ": 3438,
  "t,ĠderĠ": 3439,
  "steu": 3440,
  "wird": 3441,
  "graphi": 3442,
  "wan": 3443,
  "ĠdurchĠdie": 3444,
  "fundamental": 3445,
  "tial": 3446,
  "tĠtheĠ": 3447,
  "Ġpolicie": 3448,
  "rule": 3449,
  "entschließ": 3450,
  "Ġnutz": 3451,
  "Ġerinne": 3452,
  "angesichtsĠ": 3453,
  "tĠes": 3454,
  "zuneh": 3455,
  "ĠinĠbe": 3456,
  "ungĠnach": 3457,
  "sidi": 3458,
  "positive": 3459,
  "chtenĠ": 3460,
  "entralĠ": 3461,
  "servic": 3462,
  "accor": 3463,
  "ĠmatterĠ": 3464,
  "ĠisĠa": 3465,
  "ĠableĠtoĠ": 3466,
  "Ġgive": 3467,
  "Ġthre": 3468,
  "ĠmembersĠ": 3469,
  "wordenĠ": 3470,
  "lsĠ": 3471,
  "gleichĠ": 3472,
  "stellenĠ": 3473,
  "handlungenĠ": 3474,
  "prä": 3475,
  "progress": 3476,
  "uni": 3477,
  "Ġdial": 3478,
  "sur": 3479,
  "Ġcomple": 3480,
  "off": 3481,
  "ersten": 3482,
  "wirkungenĠ": 3483,
  "Ġbedeu": 3484,
  "apital": 3485,
  "bedingungenĠ": 3486,
  "Ġmehr": 3487,
  "sequen": 3488,
  "euroĠ": 3489,
  "beru": 3490,
  "management": 3491,
  "abkommenĠ": 3492,
  "trä": 3493,
  "bor": 3494,
  "pfel": 3495,
  "ardĠ": 3496,
  "wande": 3497,
  "ĠüberĠdenĠ": 3498,
  "Ġcre": 3499,
  "countryĠ": 3500,
  "decisionĠ": 3501,
  "ĠlevelĠ": 3502,
  "edĠthe": 3503,
  "Ġfeel": 3504,
  "Ġvo": 3505,
  "trop": 3506,
  "fondsĠ": 3507,
  "ĠmeinerĠ": 3508,
  "ĠneueĠ": 3509,
  "wirtschaftlichen": 3510,
  "ziel": 3511,
  "tand": 3512,
  "Ġperio": 3513,
  "verordnungĠ": 3514,
  "Ġzwar": 3515,
  "regierungĠ": 3516,
  "employment": 3517,
  "aceĠ": 3518,
  "Ġfundamental": 3519,
  "tedĠto": 3520,
  "Ġhow": 3521,
  "fore,Ġ": 3522,
  "move": 3523,
  "Ġsubjec": 3524,
  "united": 3525,
  "ĠaufĠderĠ": 3526,
  "samĠ": 3527,
  "Ġhä": 3528,
  "Ġmittel": 3529,
  "viel": 3530,
  "ziele": 3531,
  "prinzi": 3532,
  "enĠbe": 3533,
  "lle": 3534,
  "ĠeuropäischeĠunionĠ": 3535,
  "itions": 3536,
  "versi": 3537,
  "talĠ": 3538,
  "Ġrisk": 3539,
  "over": 3540,
  "toryĠ": 3541,
  "Ġpresident": 3542,
  "difficul": 3543,
  "ledge": 3544,
  ",Ġbecause": 3545,
  "cording": 3546,
  "councilĠ": 3547,
  "ösungĠ": 3548,
  "agesordnungĠ": 3549,
  "herrĠpräsident!": 3550,
  "transportĠ": 3551,
  "offen": 3552,
  "igkeitenĠ": 3553,
  "Ġtei": 3554,
  "entwicklungs": 3555,
  "Ġtat": 3556,
  "gendeĠ": 3557,
  "teile": 3558,
  "ingĠin": 3559,
  "ĠaidĠ": 3560,
  "Ġbu": 3561,
  "nic": 3562,
  "tsĠofĠthe": 3563,
  "doĠnotĠ": 3564,
  "wouldĠbe": 3565,
  "Ġstructur": 3566,
  "finally,Ġ": 3567,
  "Ġconf": 3568,
  "müssen,Ġ": 3569,
  "letztenĠ": 3570,
  "forme": 3571,
  "star": 3572,
  "sichtĠ": 3573,
  "ateral": 3574,
  "Ġdeshalb": 3575,
  "Ġgewährleis": 3576,
  "ttĠ": 3577,
  "mili": 3578,
  "Ġmar": 3579,
  "daherĠ": 3580,
  "aĠand": 3581,
  "atelyĠ": 3582,
  "ĠunitedĠ": 3583,
  "artic": 3584,
  "tuallyĠ": 3585,
  "lyĠandĠ": 3586,
  "partei": 3587,
  "imĠhinblick": 3588,
  "strument": 3589,
  "Ġabgeordne": 3590,
  "ĠĠmill": 3591,
  "erken": 3592,
  "tĠwerden,": 3593,
  "humanĠright": 3594,
  "yĠandĠ": 3595,
  "tment": 3596,
  "Ġvarious": 3597,
  "Ġyour": 3598,
  "needĠtoĠ": 3599,
  "fal": 3600,
  ")).": 3601,
  "zuführe": 3602,
  "jahrenĠ": 3603,
  "berück": 3604,
  "Ġaller": 3605,
  "ĠundĠ": 3606,
  "scheide": 3607,
  "lassenĠ": 3608,
  "ĠdannĠ": 3609,
  "Ġkontro": 3610,
  "gebenĠ": 3611,
  "Ġdire": 3612,
  "ungĠeinerĠ": 3613,
  "zeh": 3614,
  "sto": 3615,
  "ĠinĠa": 3616,
  "ditional": 3617,
  "cting": 3618,
  "Ġrole": 3619,
  "entlyĠ": 3620,
  "iĠthink": 3621,
  "ishing": 3622,
  "ĠforeignĠ": 3623,
  "istĠes": 3624,
  "derungĠ": 3625,
  "ĠbezugĠ": 3626,
  "Ġsa": 3627,
  "ell": 3628,
  "Ġstärk": 3629,
  "tali": 3630,
  "während": 3631,
  "Ġpositive": 3632,
  "Ġlea": 3633,
  "Ġoc": 3634,
  "airĠ": 3635,
  "ĠseeĠ": 3636,
  "Ġaddition": 3637,
  "oub": 3638,
  "placeĠ": 3639,
  "Ġconside": 3640,
  "Ġpromo": 3641,
  "thatĠitĠ": 3642,
  "Ġgesam": 3643,
  "seiner": 3644,
  "Ġmenschen": 3645,
  "Ġneuen": 3646,
  "ĠundĠden": 3647,
  "nell": 3648,
  "gründ": 3649,
  "Ġpartner": 3650,
  "klar": 3651,
  "Ġbri": 3652,
  "ĠinformationĠ": 3653,
  "rous": 3654,
  ",Ġre": 3655,
  "dress": 3656,
  "Ġapproach": 3657,
  "wichtig": 3658,
  "mberĠ": 3659,
  "Ġwürde": 3660,
  "projek": 3661,
  "gesellschaftĠ": 3662,
  "stor": 3663,
  "beitra": 3664,
  "pracheĠ": 3665,
  "Ġzun": 3666,
  "erĠebene": 3667,
  "lier": 3668,
  "ier": 3669,
  "entre": 3670,
  "lat": 3671,
  "tual": 3672,
  "common": 3673,
  "ceĠof": 3674,
  "taken": 3675,
  "Ġachieve": 3676,
  "inĠwhich": 3677,
  "alledĠ": 3678,
  "ĠmemberĠstat": 3679,
  "twork": 3680,
  "mehr": 3681,
  "Ġdaran": 3682,
  "könnenĠ": 3683,
  "Ġhil": 3684,
  "Ġwerden.": 3685,
  "enĠdie": 3686,
  "meri": 3687,
  "zuĠeinem": 3688,
  "cher": 3689,
  "Ġpen": 3690,
  ",ĠmrĠ": 3691,
  "thir": 3692,
  "Ġeffec": 3693,
  "Ġimporta": 3694,
  "Ġreport,Ġ": 3695,
  "author": 3696,
  "Ġaußer": 3697,
  "ĠderĠtagesordnungĠ": 3698,
  "sichtlich": 3699,
  "kal": 3700,
  "regionenĠ": 3701,
  "ĠzuĠden": 3702,
  ",Ġob": 3703,
  "hatte": 3704,
  "Ġschon": 3705,
  "en,ĠumĠ": 3706,
  "lagenĠ": 3707,
  "komm": 3708,
  "open": 3709,
  "Ġpur": 3710,
  "ĠlastĠ": 3711,
  "major": 3712,
  "ĠgoodĠ": 3713,
  "Ġamendment": 3714,
  "desp": 3715,
  "Ġaffair": 3716,
  "theĠcommitteeĠon": 3717,
  "Ġserious": 3718,
  "esĠinĠ": 3719,
  "Ġvertra": 3720,
  "programmĠ": 3721,
  "ĠanĠdieĠ": 3722,
  "änderungsantragĠ": 3723,
  "schon": 3724,
  "einge": 3725,
  "ĠderĠ": 3726,
  "gera": 3727,
  "haltungĠ": 3728,
  "schritte": 3729,
  "breit": 3730,
  "Ġdefin": 3731,
  "ja": 3732,
  "hen.": 3733,
  "ürz": 3734,
  "levelĠ": 3735,
  "Ġpracti": 3736,
  "sĠas": 3737,
  "ustain": 3738,
  "Ġlarge": 3739,
  "perie": 3740,
  "ĠwhichĠare": 3741,
  "volvedĠ": 3742,
  "haben,": 3743,
  "lei": 3744,
  "wesent": 3745,
  "transparen": 3746,
  "artik": 3747,
  "beiĠden": 3748,
  "prozeß": 3749,
  "vielĠ": 3750,
  "sĠbe": 3751,
  "wennĠwirĠ": 3752,
  "zuĠeiner": 3753,
  "Ġist.": 3754,
  "gal": 3755,
  "Ġill": 3756,
  "ĠworldĠ": 3757,
  "debateĠ": 3758,
  "ĠheĠ": 3759,
  "fullyĠ": 3760,
  "interest": 3761,
  "kräf": 3762,
  "ĠderĠkommissionĠ": 3763,
  "Ġrecht": 3764,
  "lange": 3765,
  "ommiss": 3766,
  "Ġbeispie": 3767,
  "Ġeng": 3768,
  "Ġseine": 3769,
  "vorschläge": 3770,
  "ld": 3771,
  "ira": 3772,
  "ĠregionĠ": 3773,
  "Ġide": 3774,
  "tting": 3775,
  "ĠoverĠ": 3776,
  "theĠnextĠitem": 3777,
  "itemĠisĠ": 3778,
  "nical": 3779,
  "hasi": 3780,
  "ned,Ġ": 3781,
  "oneĠofĠthe": 3782,
  "frauĠpräsident": 3783,
  "fürĠdas": 3784,
  "nachĠderĠtagesordnungĠ": 3785,
  "Ġkommi": 3786,
  "europas": 3787,
  "hört": 3788,
  "zentra": 3789,
  "Ġgewi": 3790,
  "sichĠdie": 3791,
  "Ġinstrument": 3792,
  "laub": 3793,
  "könnt": 3794,
  "ürkei": 3795,
  "deal": 3796,
  "ieldĠ": 3797,
  "require": 3798,
  "withĠregardĠto": 3799,
  "Ġthir": 3800,
  "theyĠareĠ": 3801,
  "edĠand": 3802,
  "Ġshall": 3803,
  "Ġeach": 3804,
  "above": 3805,
  "Ġkönnen.": 3806,
  "bru": 3807,
  "ĠderĠtagesordnungĠfolgtĠ": 3808,
  "bedeu": 3809,
  "herrnĠ": 3810,
  "wies": 3811,
  "ĠihrĠ": 3812,
  "neu": 3813,
  "erfol": 3814,
  "gemeinschafts": 3815,
  "ĠpolitischenĠ": 3816,
  "informationĠ": 3817,
  "wurfĠ": 3818,
  "Ġpriv": 3819,
  "rungskonferenz": 3820,
  "ĠgemeinschaftĠ": 3821,
  "schre": 3822,
  "rseitsĠ": 3823,
  "ost": 3824,
  "Ġadministra": 3825,
  "ailable": 3826,
  "Ġcontinu": 3827,
  "keyĠ": 3828,
  "e,ĠandĠ": 3829,
  "thatĠi": 3830,
  "thatĠtheyĠ": 3831,
  "thoughĠ": 3832,
  "Ġtrade": 3833,
  "Ġnun": 3834,
  "Ġdisk": 3835,
  "tretenĠ": 3836,
  "ssar": 3837,
  "tsĠundĠ": 3838,
  "möglichkeitenĠ": 3839,
  "konkre": 3840,
  "splä": 3841,
  "inĠs": 3842,
  "versch": 3843,
  "ĠdamitĠ": 3844,
  "sei": 3845,
  "beispielĠ": 3846,
  "darüberĠ": 3847,
  "äußerst": 3848,
  "zurück": 3849,
  "Ġstaat": 3850,
  "nĠunter": 3851,
  "Ġbin": 3852,
  "theĠnextĠitemĠisĠ": 3853,
  "nachĠderĠtagesordnungĠfolgtĠ": 3854,
  "verfahre": 3855,
  "heĠvon": 3856,
  "dic": 3857,
  "ross": 3858,
  "ideline": 3859,
  "lleag": 3860,
  "areas": 3861,
  "ĠgivenĠ": 3862,
  "Ġfew": 3863,
  "reason": 3864,
  "Ġcontro": 3865,
  "Ġcrime": 3866,
  "sĠhave": 3867,
  "Ġappropri": 3868,
  "ick": 3869,
  "neueĠ": 3870,
  "Ġoffen": 3871,
  "derĠkommissionĠ": 3872,
  "tern": 3873,
  "Ġkommissar": 3874,
  "Ġanges": 3875,
  "tivenĠ": 3876,
  "vorgeschla": 3877,
  "kommissio": 3878,
  "baren": 3879,
  "dial": 3880,
  "t,ĠsoĠ": 3881,
  "Ġvorge": 3882,
  "lebens": 3883,
  "Ġnatürlich": 3884,
  "mitt": 3885,
  "Ġentschließ": 3886,
  "iter": 3887,
  "mak": 3888,
  "cns": 3889,
  "essent": 3890,
  "valu": 3891,
  "Ġhigh": 3892,
  "prote": 3893,
  "pat": 3894,
  "Ġprogress": 3895,
  "Ġaccoun": 3896,
  "Ġrequ": 3897,
  "withĠregardĠtoĠthe": 3898,
  "acces": 3899,
  "fäll": 3900,
  "n,Ġden": 3901,
  "zuständ": 3902,
  "fähr": 3903,
  "jetztĠ": 3904,
  "ter,Ġ": 3905,
  "ĠumĠdieĠ": 3906,
  "Ġklar": 3907,
  "anĠder": 3908,
  "mode": 3909,
  "Ġkin": 3910,
  "socie": 3911,
  "sĠis": 3912,
  "oungĠ": 3913,
  "conf": 3914,
  "Ġthank": 3915,
  "tsĠto": 3916,
  "despiteĠ": 3917,
  "ckĠofĠ": 3918,
  "iĠbelieve": 3919,
  "while": 3920,
  "isĠthe": 3921,
  "Ġartic": 3922,
  "ingĠandĠ": 3923,
  "ĠthisĠis": 3924,
  "theĠcont": 3925,
  "ĠdifferentĠ": 3926,
  "ĠrespectĠ": 3927,
  "g,Ġ": 3928,
  "undĠdenĠ": 3929,
  "setzungĠ": 3930,
  "ĠgibtĠ": 3931,
  "nen,": 3932,
  "henden": 3933,
  "dieĠbe": 3934,
  "Ġanwend": 3935,
  "Ġfort": 3936,
  "standar": 3937,
  "dem": 3938,
  "mster": 3939,
  "unternehmenĠ": 3940,
  "ques": 3941,
  "nov": 3942,
  "sla": 3943,
  "Ġmanagement": 3944,
  "atoryĠ": 3945,
  "ev": 3946,
  "rane": 3947,
  "grant": 3948,
  "visions": 3949,
  "ted,Ġ": 3950,
  "onceĠ": 3951,
  "ĠwellĠas": 3952,
  "various": 3953,
  "Ġprevent": 3954,
  "isheries": 3955,
  "publi": 3956,
  "gefordert": 3957,
  "besteht": 3958,
  "Ġwird.": 3959,
  "ĠderĠunion": 3960,
  "Ġpop": 3961,
  "Ġbürger": 3962,
  "dro": 3963,
  "zeugni": 3964,
  "ual": 3965,
  "seri": 3966,
  "pris": 3967,
  "ĠwithĠa": 3968,
  "ĠwouldĠlikeĠto": 3969,
  "putĠ": 3970,
  "wth": 3971,
  "ĠdoesĠnotĠ": 3972,
  "essential": 3973,
  ".e.": 3974,
  "quiteĠ": 3975,
  "parlamentsĠ": 3976,
  "frist": 3977,
  "kat": 3978,
  "dingsĠ": 3979,
  "nationalen": 3980,
  "hinweis": 3981,
  "läß": 3982,
  "ĠdasĠeuropäischeĠparlament": 3983,
  "jed": 3984,
  "stimme": 3985,
  "Ġinten": 3986,
  "obach": 3987,
  "syl": 3988,
  "dat": 3989,
  "back": 3990,
  "non": 3991,
  "abilityĠ": 3992,
  "atĠtheĠsame": 3993,
  "importa": 3994,
  "therefore,Ġ": 3995,
  "lude": 3996,
  "rable": 3997,
  "Ġhelp": 3998,
  "y'Ġs": 3999,
  "ĠdecisionĠ": 4000,
  "ranean": 4001,
  "fen,Ġ": 4002,
  "empf": 4003,
  "Ġkonkre": 4004,
  "menĠundĠ": 4005,
  "Ġbekämpf": 4006,
  "Ġkolle": 4007,
  "Ġwoll": 4008,
  "größ": 4009,
  "tĠwird.": 4010,
  "ĠihremĠ": 4011,
  "reichenĠ": 4012,
  "ungen,Ġdie": 4013,
  "asy": 4014,
  "sĠor": 4015,
  "your": 4016,
  "ĠsameĠtime": 4017,
  "water": 4018,
  "Ġinclu": 4019,
  "ĠcannotĠ": 4020,
  "ĠtoĠa": 4021,
  "roug": 4022,
  "Ġmonitor": 4023,
  "gernĠ": 4024,
  "goĠ": 4025,
  "ĠauchĠdie": 4026,
  "forderungenĠ": 4027,
  "verständlich": 4028,
  "steuer": 4029,
  "Ġeinge": 4030,
  "anti": 4031,
  "beitrit": 4032,
  "ĠundĠdas": 4033,
  "ellĠ": 4034,
  "ĠparlamentsĠ": 4035,
  "gebra": 4036,
  "Ġangele": 4037,
  "eira": 4038,
  "smus": 4039,
  "opportun": 4040,
  "swe": 4041,
  "prac": 4042,
  "educ": 4043,
  "clu": 4044,
  "ityĠandĠ": 4045,
  "theĠcons": 4046,
  "Ġhous": 4047,
  "amendmentsĠ": 4048,
  "Ġgröß": 4049,
  "wieĠdieĠ": 4050,
  "ĠunternehmenĠ": 4051,
  "Ġh.": 4052,
  "atĠtheĠsameĠtime": 4053,
  "Ġwieder": 4054,
  "Ġbereich": 4055,
  "tĠist,Ġ": 4056,
  "Ġhand,Ġ": 4057,
  "Ġentwicklungs": 4058,
  "Ġangelegenheit": 4059,
  "rats": 4060,
  "vilĠ": 4061,
  "sex": 4062,
  "each": 4063,
  "ĠeuroĠ": 4064,
  "trade": 4065,
  "justic": 4066,
  "serious": 4067,
  "ingĠof": 4068,
  "self": 4069,
  "Ġand,Ġ": 4070,
  "ĠtheĠs": 4071,
  "üng": 4072,
  "wuß": 4073,
  "zukunftĠ": 4074,
  "sowieĠdieĠ": 4075,
  "solltenĠ": 4076,
  "Ġregel": 4077,
  "überein": 4078,
  "herrĠkommissar": 4079,
  "möglichen": 4080,
  "naly": 4081,
  "mechanis": 4082,
  "debatte": 4083,
  "kontrolleĠ": 4084,
  "finanz": 4085,
  "vio": 4086,
  "Ġorganisations": 4087,
  "ani": 4088,
  "ement": 4089,
  "ttle": 4090,
  "ĠofĠour": 4091,
  ",Ġit": 4092,
  "lyĠto": 4093,
  "ĠcommitteeĠ": 4094,
  "dĠandĠ": 4095,
  "ĠfutureĠ": 4096,
  "Ġmember": 4097,
  "Ġant": 4098,
  "Ġwettbewerb": 4099,
  "Ġarbeits": 4100,
  "ungenĠundĠ": 4101,
  "Ġaktion": 4102,
  "ĠinĠbezugĠ": 4103,
  "Ġbeschäftig": 4104,
  "obei": 4105,
  "ĠartikelĠ": 4106,
  "dieĠeuropäischeĠunionĠ": 4107,
  "ĠeinigenĠ": 4108,
  "vertei": 4109,
  "Ġintegration": 4110,
  "global": 4111,
  "kosovoĠ": 4112,
  "bah": 4113,
  "Ġmis": 4114,
  "ront": 4115,
  "redu": 4116,
  "pur": 4117,
  "Ġindi": 4118,
  "ternative": 4119,
  "ntionĠ": 4120,
  "dĠbyĠtheĠ": 4121,
  "mous": 4122,
  "(a)ĠbyĠmrĠ": 4123,
  "Ġprepar": 4124,
  "Ġdemocratic": 4125,
  "defen": 4126,
  "presidencyĠ": 4127,
  "beispielsweiseĠ": 4128,
  "()ĠĠĠcĠĠ(co": 4129,
  "wirĠunsĠ": 4130,
  "Ġunseren": 4131,
  "enĠundĠdie": 4132,
  "ächlich": 4133,
  "verge": 4134,
  "egor": 4135,
  "weiterungĠ": 4136,
  "Ġjed": 4137,
  "ĠaufĠdemĠ": 4138,
  "serv": 4139,
  "fit": 4140,
  "dĠin": 4141,
  "migration": 4142,
  "ĠusĠ": 4143,
  "vote": 4144,
  "ĠregulationĠ": 4145,
  "Ġask": 4146,
  "states": 4147,
  "ĠwantĠto": 4148,
  "area": 4149,
  "guage": 4150,
  "igtenĠ": 4151,
  "Ġmeine": 4152,
  "mitteil": 4153,
  "Ġbem": 4154,
  "nehmerĠ": 4155,
  "steht": 4156,
  "men.": 4157,
  "ppen": 4158,
  "simp": 4159,
  "ĠconferenceĠ": 4160,
  ",ĠwhoĠ": 4161,
  "cident": 4162,
  "improve": 4163,
  "contri": 4164,
  "n,ĠdaßĠwirĠ": 4165,
  "angelegenheit": 4166,
  "übrigenĠ": 4167,
  "wegĠ": 4168,
  "land,Ġ": 4169,
  "anwend": 4170,
  "Ġfes": 4171,
  "öffentlich": 4172,
  "tiz": 4173,
  "sen": 4174,
  "Ġfutur": 4175,
  "ateĠtheĠ": 4176,
  "stances": 4177,
  "ĠbetweenĠthe": 4178,
  "ity.": 4179,
  "thank": 4180,
  "ifĠwe": 4181,
  "urtĠof": 4182,
  "fahr": 4183,
  "derĠeuropäischenĠunion": 4184,
  "schließlich": 4185,
  "gesellschaf": 4186,
  "dessen": 4187,
  "ĠandereĠ": 4188,
  "Ġgericht": 4189,
  "ker": 4190,
  "justi": 4191,
  "omit": 4192,
  "Ġhaben,": 4193,
  "Ġmulti": 4194,
  "ulateĠ": 4195,
  "elec": 4196,
  "ĠfundsĠ": 4197,
  "hapsĠ": 4198,
  "havingĠ": 4199,
  "ĠtheĠeuropeanĠunion": 4200,
  "worldĠ": 4201,
  "prepar": 4202,
  "ĠtowardsĠ": 4203,
  "gangenenĠ": 4204,
  "Ġerklä": 4205,
  "ĠimĠnamenĠdesĠausschussesĠfürĠ": 4206,
  "zeit": 4207,
  "diglich": 4208,
  "ungnahme": 4209,
  "schwe": 4210,
  "kosten": 4211,
  "frauen": 4212,
  "mine": 4213,
  "Ġbegin": 4214,
  "vorsitz": 4215,
  "zustell": 4216,
  "hilfen": 4217,
  "tĠsich": 4218,
  "Ġprote": 4219,
  "ismus": 4220,
  "gelungĠ": 4221,
  "ĠregierungĠ": 4222,
  "tari": 4223,
  "bon": 4224,
  "Ġsto": 4225,
  "Ġmuch": 4226,
  "Ġdoc": 4227,
  "workingĠ": 4228,
  "Ġaccep": 4229,
  "ĠproposalĠforĠa": 4230,
  "sĠforĠthe": 4231,
  "hesion": 4232,
  "Ġwhether": 4233,
  "search": 4234,
  "theĠeuropeanĠparliament": 4235,
  "ĠandĠc": 4236,
  "Ġführe": 4237,
  "enĠso": 4238,
  "astrop": 4239,
  "gesĠ": 4240,
  "einsch": 4241,
  "n,ĠaberĠ": 4242,
  "kontroll": 4243,
  ",ĠdennĠ": 4244,
  "tele": 4245,
  "ebene": 4246,
  "ünd": 4247,
  "send": 4248,
  "ĠmenschenĠ": 4249,
  "dio": 4250,
  "plo": 4251,
  "ĠcĠĠ(cns": 4252,
  "ce.": 4253,
  "bute": 4254,
  "think": 4255,
  "sources": 4256,
  "ĠworkingĠ": 4257,
  "aid,Ġ": 4258,
  "Ġjustic": 4259,
  "fahre": 4260,
  "höre": 4261,
  "ĠjetztĠ": 4262,
  "invest": 4263,
  "maßnahme": 4264,
  "klein": 4265,
  "dabei": 4266,
  "ĠlandĠ": 4267,
  "Ġvolks": 4268,
  "rup": 4269,
  "tĠundĠdieĠ": 4270,
  "enti": 4271,
  "ing.": 4272,
  "rac": 4273,
  "ingle": 4274,
  "ggest": 4275,
  "ty.": 4276,
  "aboutĠtheĠ": 4277,
  "environmental": 4278,
  "that,Ġ": 4279,
  "democratic": 4280,
  "alsĠauch": 4281,
  "groß": 4282,
  "thema": 4283,
  "t,ĠdaßĠdie": 4284,
  "bel": 4285,
  "ĠdafürĠ": 4286,
  "ihrĠ": 4287,
  "sehe": 4288,
  "derni": 4289,
  "Ġnämlich": 4290,
  "partner": 4291,
  "unge": 4292,
  "aufgrundĠ": 4293,
  "gosla": 4294,
  ",Ġis": 4295,
  "ld,Ġ": 4296,
  "doesĠnotĠ": 4297,
  "cy.": 4298,
  "ities,Ġ": 4299,
  "ĠaĠs": 4300,
  "roughoutĠ": 4301,
  "ception": 4302,
  "ĠproposedĠ": 4303,
  "hmĠ": 4304,
  "schul": 4305,
  "pli": 4306,
  "tragenĠ": 4307,
  "zuge": 4308,
  "trotz": 4309,
  "xim": 4310,
  "gerade": 4311,
  "fähigkeitĠ": 4312,
  "itätenĠ": 4313,
  "Ġanaly": 4314,
  "eint": 4315,
  "post": 4316,
  "gegenwärt": 4317,
  ",ĠdaßĠsie": 4318,
  "ungĠeinesĠ": 4319,
  "famili": 4320,
  "Ġüberein": 4321,
  "wirĠmüssen": 4322,
  "weltĠ": 4323,
  "kamp": 4324,
  "vestit": 4325,
  "Ġstu": 4326,
  "Ġcondition": 4327,
  "fortun": 4328,
  "Ġoffic": 4329,
  "iĠshouldĠlikeĠto": 4330,
  "ĠthemĠ": 4331,
  "thre": 4332,
  "ĠtoĠens": 4333,
  "Ġmention": 4334,
  "ĠthatĠitĠisĠ": 4335,
  "Ġpreside": 4336,
  "berichtĠ(a)ĠvonĠherrnĠ": 4337,
  "Ġfle": 4338,
  "ĠgemeinsamenĠ": 4339,
  "nommenĠ": 4340,
  "Ġstreng": 4341,
  "hase": 4342,
  "Ġung": 4343,
  "Ġheiß": 4344,
  "binnenmark": 4345,
  "Ġinteresse": 4346,
  "sorge": 4347,
  "ilitätĠ": 4348,
  "vonĠ": 4349,
  "n?": 4350,
  "Ġbre": 4351,
  "bekämpf": 4352,
  "Ġstart": 4353,
  "aper": 4354,
  "Ġrefer": 4355,
  "communic": 4356,
  "appe": 4357,
  "ĠeuropeanĠparliamentĠand": 4358,
  "e'Ġs": 4359,
  "Ġfurther": 4360,
  "clearlyĠ": 4361,
  "health": 4362,
  "ncy,Ġ": 4363,
  "vonĠherrnĠ": 4364,
  "perio": 4365,
  "wichtige": 4366,
  "Ġnie": 4367,
  "wünschen": 4368,
  "stehenĠ": 4369,
  "Ġdank": 4370,
  "Ġgesell": 4371,
  "Ġumwelt": 4372,
  "Ġbetriff": 4373,
  "gü": 4374,
  "kor": 4375,
  "ĠzeitĠ": 4376,
  "haben.": 4377,
  "..": 4378,
  "Ġproblem": 4379,
  "ĠproblemsĠ": 4380,
  "Ġur": 4381,
  "temp": 4382,
  "Ġtax": 4383,
  "respon": 4384,
  "ry": 4385,
  "equ": 4386,
  "out": 4387,
  "pear": 4388,
  "continu": 4389,
  "ctionĠofĠ": 4390,
  "ĠsetĠ": 4391,
  "lieve": 4392,
  "considerĠ": 4393,
  "theĠfactĠthat": 4394,
  "underĠtheĠ": 4395,
  "ĠlongĠ": 4396,
  "Ġparties": 4397,
  "ĠthirdĠ": 4398,
  "ĠfürĠdas": 4399,
  "Ġgesag": 4400,
  "textĠ": 4401,
  "losĠ": 4402,
  "dring": 4403,
  "zogenĠ": 4404,
  "berücksichtig": 4405,
  "ew": 4406,
  "tab": 4407,
  "Ġlasse": 4408,
  "Ġgenu": 4409,
  "Ġzweit": 4410,
  "Ġmitglied": 4411,
  "taus": 4412,
  "Ġcost": 4413,
  "Ġmode": 4414,
  "vin": 4415,
  "Ġglobal": 4416,
  "trag": 4417,
  "ong": 4418,
  "ustainable": 4419,
  "every": 4420,
  "yĠof": 4421,
  "ĠasĠtheĠ": 4422,
  "termĠ": 4423,
  "responsible": 4424,
  "great": 4425,
  "ĠsaidĠ": 4426,
  "securityĠ": 4427,
  "eĠwith": 4428,
  "Ġparticip": 4429,
  "gemäß": 4430,
  "Ġwa": 4431,
  "glaube": 4432,
  "gleichzeitigĠ": 4433,
  "zif": 4434,
  "schließendĠ": 4435,
  "falle": 4436,
  "enĠdes": 4437,
  "Ġvö": 4438,
  "serve": 4439,
  "verbraucher": 4440,
  "sink": 4441,
  "wider": 4442,
  "netĠ": 4443,
  "fahrenĠ": 4444,
  "füll": 4445,
  "chin": 4446,
  "ĠmittelĠ": 4447,
  "Ġdeleg": 4448,
  "davon": 4449,
  "atel": 4450,
  "live": 4451,
  "Ġinternal": 4452,
  "letĠ": 4453,
  "ure,Ġ": 4454,
  "membersĠ": 4455,
  "ityĠofĠthe": 4456,
  "another": 4457,
  "Ġspecial": 4458,
  "discus": 4459,
  "Ġrecogni": 4460,
  "Ġthing": 4461,
  "s,Ġas": 4462,
  "sĠonĠthe": 4463,
  "ablyĠ": 4464,
  "laß": 4465,
  "ktenĠ": 4466,
  "Ġindustri": 4467,
  "splätz": 4468,
  "Ġausschuß": 4469,
  "erns": 4470,
  "ographi": 4471,
  "Ġentwickel": 4472,
  "wäl": 4473,
  "namenĠderĠ": 4474,
  "Ġersten": 4475,
  "tal": 4476,
  "ungĠzu": 4477,
  "zusch": 4478,
  "lor": 4479,
  "zusetz": 4480,
  "etwas": 4481,
  "ameri": 4482,
  "ĠfragenĠ": 4483,
  "balkan": 4484,
  "präsidentschaftĠ": 4485,
  "terri": 4486,
  "asso": 4487,
  "setĠ": 4488,
  "ussĠ": 4489,
  "ĠthatĠthis": 4490,
  "esĠtoĠ": 4491,
  "ĠandĠ": 4492,
  "ceĠtheĠ": 4493,
  "freedom": 4494,
  "extremelyĠ": 4495,
  "ĠbudgetaryĠ": 4496,
  "cle": 4497,
  "traffic": 4498,
  "rigenĠ": 4499,
  "anu": 4500,
  "anzu": 4501,
  "Ġdoch": 4502,
  "Ġweiter": 4503,
  "beziehungenĠ": 4504,
  "Ġwirklich": 4505,
  "nungĠderĠ": 4506,
  "Ġgesetz": 4507,
  "ĠverordnungĠ": 4508,
  "äre": 4509,
  "üb": 4510,
  "samkeitĠ": 4511,
  "Ġir": 4512,
  "Ġred": 4513,
  "basis": 4514,
  "ĠparticularlyĠ": 4515,
  "achieve": 4516,
  "intend": 4517,
  "edĠbyĠtheĠ": 4518,
  "recogni": 4519,
  "according": 4520,
  "setzungĠderĠ": 4521,
  "Ġansicht": 4522,
  "ativ": 4523,
  "Ġdat": 4524,
  "lebe": 4525,
  "ungen,": 4526,
  "koh": 4527,
  "Ġju": 4528,
  "enĠwirĠ": 4529,
  "Ġbesse": 4530,
  "Ġkultur": 4531,
  ",ĠdaßĠder": 4532,
  "Ġpunk": 4533,
  "imĠrahmenĠderĠ": 4534,
  "Ġple": 4535,
  "Ġori": 4536,
  "esĠthe": 4537,
  "courage": 4538,
  "Ġproper": 4539,
  "vingĠtheĠ": 4540,
  "Ġdifficul": 4541,
  "ĠmrsĠ": 4542,
  "Ġeffective": 4543,
  "ĠproposalsĠ": 4544,
  "trodu": 4545,
  "ĠletztenĠ": 4546,
  "ergeb": 4547,
  "Ġsor": 4548,
  "ĠvonĠfrau": 4549,
  "ĠinĠdemĠ": 4550,
  "losig": 4551,
  "Ġken": 4552,
  "tĠwerdenĠsoll": 4553,
  "gegenüberĠ": 4554,
  "regionĠ": 4555,
  "darfĠ": 4556,
  "Ġprobleme": 4557,
  "goodĠ": 4558,
  "verse": 4559,
  "equal": 4560,
  "Ġdebat": 4561,
  "hop": 4562,
  "ised": 4563,
  "Ġnon": 4564,
  "Ġcommunic": 4565,
  "istsĠ": 4566,
  "help": 4567,
  ",ĠonĠbehalfĠofĠtheĠcommitteeĠon": 4568,
  "Ġaustri": 4569,
  "nceĠandĠ": 4570,
  "doc": 4571,
  "close": 4572,
  "framework": 4573,
  "läng": 4574,
  "empfeh": 4575,
  "internationalen": 4576,
  "Ġrates": 4577,
  "Ġdabei": 4578,
  "ung.": 4579,
  "inĠ": 4580,
  "werden,": 4581,
  "verfol": 4582,
  "ĠvorschlagĠ": 4583,
  "haltĠ": 4584,
  "mitglieder": 4585,
  "wasĠdie": 4586,
  "t,Ġdas": 4587,
  "zumĠausdruck": 4588,
  "bürger": 4589,
  "sou": 4590,
  "läss": 4591,
  "künf": 4592,
  "ii": 4593,
  "Ġlu": 4594,
  "ion": 4595,
  "ficantĠ": 4596,
  "Ġjob": 4597,
  "nual": 4598,
  "Ġcompetition": 4599,
  "whichĠare": 4600,
  "Ġallow": 4601,
  "verthe": 4602,
  "heless": 4603,
  "ĠdasĠparlament": 4604,
  "faß": 4605,
  "zweck": 4606,
  "bzw.": 4607,
  "lligĠ": 4608,
  "ĠzurĠver": 4609,
  "Ġweitere": 4610,
  "enĠein": 4611,
  "je": 4612,
  "müssen.": 4613,
  "Ġfri": 4614,
  "ichĠhabe": 4615,
  "Ġgebe": 4616,
  "keits": 4617,
  "Ġban": 4618,
  "Ġessen": 4619,
  "indus": 4620,
  "projec": 4621,
  "ĠusĠto": 4622,
  "Ġsome": 4623,
  "Ġopen": 4624,
  "edĠinĠtheĠ": 4625,
  ",ĠwhenĠ": 4626,
  "allow": 4627,
  "representative": 4628,
  "sĠwith": 4629,
  "ĠiĠamĠ": 4630,
  "onour": 4631,
  "necessaryĠ": 4632,
  "ĠtermsĠof": 4633,
  "issueĠ": 4634,
  "ightĠagainst": 4635,
  "untries": 4636,
  "ĠaufgrundĠ": 4637,
  "istenĠ": 4638,
  "flex": 4639,
  "zahl": 4640,
  "inĠbezugĠ": 4641,
  ",Ġeine": 4642,
  "prechen": 4643,
  "ĠĠcĠĠ(co": 4644,
  "ĠanĠderĠ": 4645,
  "sehenĠ": 4646,
  "grar": 4647,
  "icherĠ": 4648,
  "dera": 4649,
  "Ġwesent": 4650,
  "Ġdarin": 4651,
  "igkei": 4652,
  "vertheless": 4653,
  "fügungĠ": 4654,
  "teĠund": 4655,
  "spruch": 4656,
  "Ġdam": 4657,
  "großen": 4658,
  "ĠreformĠ": 4659,
  "brechen": 4660,
  "Ġneu": 4661,
  "Ġrah": 4662,
  "abgeordnetenĠ": 4663,
  "bi": 4664,
  "bro": 4665,
  ",ĠdassĠdieĠ": 4666,
  "Ġout": 4667,
  "oun": 4668,
  "Ġbecome": 4669,
  "dĠof": 4670,
  "Ġcreat": 4671,
  "onĠtheĠother": 4672,
  "riedĠoutĠ": 4673,
  "Ġcontribution": 4674,
  "following": 4675,
  "urteil": 4676,
  "ĠsichĠdieĠ": 4677,
  "te.": 4678,
  "frem": 4679,
  "langĠ": 4680,
  "bedeutungĠ": 4681,
  "aller": 4682,
  "instrument": 4683,
  ",ĠdamitĠ": 4684,
  "Ġmetho": 4685,
  "ährend": 4686,
  "unternehme": 4687,
  "Ġrück": 4688,
  "vorschlagĠfürĠeine": 4689,
  "terenĠ": 4690,
  "Ġstandar": 4691,
  "Ġis": 4692,
  ":Ġ\"": 4693,
  "Ġafri": 4694,
  "Ġmone": 4695,
  "port.": 4696,
  "policie": 4697,
  "Ġcommitment": 4698,
  "conditions": 4699,
  "shing": 4700,
  "Ġbusines": 4701,
  "eĠtoĠthe": 4702,
  "ĠcountryĠ": 4703,
  "prevent": 4704,
  "sĠfromĠ": 4705,
  "Ġbar": 4706,
  "enĠimĠ": 4707,
  "traumĠ": 4708,
  "harmonis": 4709,
  "den.": 4710,
  "Ġetwas": 4711,
  "neuer": 4712,
  "Ġwoh": 4713,
  "ari": 4714,
  "einheit": 4715,
  "deutlich": 4716,
  "uchen": 4717,
  "genannten": 4718,
  "s,ĠdieĠ": 4719,
  "Ġroll": 4720,
  "ächsten": 4721,
  "ĠgegenüberĠ": 4722,
  "wirĠhabenĠ": 4723,
  "sidiar": 4724,
  "Ġcor": 4725,
  "fried": 4726,
  "chtig": 4727,
  "rtra": 4728,
  "hom": 4729,
  "tack": 4730,
  "treatyĠ": 4731,
  "cili": 4732,
  "Ġinvolve": 4733,
  "waysĠ": 4734,
  "Ġmarke": 4735,
  "Ġagricultural": 4736,
  "Ġsuc": 4737,
  "full": 4738,
  "dĠnotĠ": 4739,
  "ceed": 4740,
  "dlyĠ": 4741,
  "policy,Ġ": 4742,
  "schwier": 4743,
  "erne": 4744,
  "dasĠparlament": 4745,
  "nĠdemĠ": 4746,
  "inĠeinem": 4747,
  "zer": 4748,
  "denĠundĠ": 4749,
  "akzep": 4750,
  "umsĠ": 4751,
  "ĠjahrenĠ": 4752,
  "werk": 4753,
  "heraus": 4754,
  "ĠregionenĠ": 4755,
  "eigenenĠ": 4756,
  "unabhäng": 4757,
  "gesag": 4758,
  "olĠ": 4759,
  "Ġschwier": 4760,
  "aussetz": 4761,
  "arian": 4762,
  "resul": 4763,
  "ly": 4764,
  "ĠhighĠ": 4765,
  "internal": 4766,
  "ĠconsumerĠ": 4767,
  "en,ĠdassĠ": 4768,
  "cap": 4769,
  "weĠshouldĠ": 4770,
  "resources": 4771,
  "Ġback": 4772,
  "tionĠofĠtheĠ": 4773,
  "greater": 4774,
  "ĠconsiderĠ": 4775,
  "introdu": 4776,
  "ĠtooĠ": 4777,
  "ĠthroughĠ": 4778,
  "ĠwithinĠtheĠ": 4779,
  "women": 4780,
  "ĠbeiĠden": 4781,
  "lag": 4782,
  "vorlie": 4783,
  "ließlich": 4784,
  "Ġkurz": 4785,
  "energie": 4786,
  "funktion": 4787,
  "ativenĠ": 4788,
  "Ġviele": 4789,
  "wie": 4790,
  "vielleichtĠ": 4791,
  "r.": 4792,
  "eĠzu": 4793,
  "r,Ġ": 4794,
  "Ġdu": 4795,
  "fass": 4796,
  "schlossen": 4797,
  "Ġhaushalts": 4798,
  "angesichtsĠderĠ": 4799,
  "ista": 4800,
  "drücklich": 4801,
  "Ġbeteili": 4802,
  "Ġsum": 4803,
  "europeanĠparliament": 4804,
  "ĠwithoutĠ": 4805,
  ",ĠforĠexample": 4806,
  "theĠcommission,": 4807,
  "applic": 4808,
  "takingĠ": 4809,
  "tĠandĠ": 4810,
  "ĠofĠre": 4811,
  "theĠcommission'Ġs": 4812,
  "ĠthatĠit": 4813,
  "duc": 4814,
  "wantĠto": 4815,
  "Ġhaben.": 4816,
  "fallsĠ": 4817,
  "ĠzuĠbe": 4818,
  "Ġeuro": 4819,
  "ausspracheĠ": 4820,
  "nä": 4821,
  "taat": 4822,
  "Ġmehrheit": 4823,
  "einzelnenĠ": 4824,
  "en,ĠderĠ": 4825,
  "ĠichĠmöchte": 4826,
  "enĠsoll": 4827,
  "verschiedenen": 4828,
  "unserĠ": 4829,
  "Ġelement": 4830,
  "Ġdiens": 4831,
  "ierenĠ": 4832,
  ",Ġor": 4833,
  "gative": 4834,
  "Ġbro": 4835,
  "Ġtyp": 4836,
  "cho": 4837,
  "commit": 4838,
  "corpor": 4839,
  "ĠandĠtoĠ": 4840,
  "regions": 4841,
  "ĠandĠthatĠ": 4842,
  "ĠsectorĠ": 4843,
  "differentĠ": 4844,
  "partĠofĠthe": 4845,
  "whichĠhas": 4846,
  "proposalsĠ": 4847,
  "iselyĠ": 4848,
  "sĠofĠa": 4849,
  "vantage": 4850,
  "Ġdeutlich": 4851,
  "Ġerforder": 4852,
  "Ġförder": 4853,
  "nimm": 4854,
  "en,ĠdaßĠdie": 4855,
  "wettbewerbs": 4856,
  "ausĠdemĠ": 4857,
  ",Ġdoch": 4858,
  "zwischenĠderĠ": 4859,
  "ebensoĠ": 4860,
  "hält": 4861,
  "möglichkeitĠ": 4862,
  "Ġmechanis": 4863,
  "Ġsoli": 4864,
  "Ġgib": 4865,
  "demokrati": 4866,
  "nere": 4867,
  "metho": 4868,
  "ĠeuropäischenĠunion": 4869,
  "Ġinsta": 4870,
  "highĠ": 4871,
  "Ġpost": 4872,
  "tential": 4873,
  "hor": 4874,
  "pension": 4875,
  "iri": 4876,
  "cy": 4877,
  "busines": 4878,
  "s,Ġto": 4879,
  "ĠisĠnotĠ": 4880,
  "withĠaĠview": 4881,
  "ĠviewĠtoĠ": 4882,
  "ly.": 4883,
  "secondly,Ġ": 4884,
  "ĠamendmentsĠ": 4885,
  "Ġurge": 4886,
  "ofĠtra": 4887,
  "longerĠ": 4888,
  "Ġnegotiations": 4889,
  "Ġfact,Ġ": 4890,
  "Ġbenef": 4891,
  "isting": 4892,
  "Ġfull": 4893,
  "fuge": 4894,
  "istĠundĠ": 4895,
  "Ġprü": 4896,
  "strategie": 4897,
  "standpunktĠ": 4898,
  "leistungenĠ": 4899,
  "ĠbesondersĠ": 4900,
  "Ġja": 4901,
  "währungĠ": 4902,
  "Ġlebens": 4903,
  "artikelĠ": 4904,
  "ĠzielĠ": 4905,
  "reformĠ": 4906,
  "vorgeleg": 4907,
  "kommun": 4908,
  "n,ĠdaßĠesĠ": 4909,
  "sinki": 4910,
  "liberali": 4911,
  "row": 4912,
  "high": 4913,
  "onĠ": 4914,
  ")]": 4915,
  "wardĠ": 4916,
  "seek": 4917,
  "haveĠa": 4918,
  "Ġsector": 4919,
  "Ġmeeting": 4920,
  "competition": 4921,
  "Ġimprove": 4922,
  "ĠownĠ": 4923,
  "Ġevery": 4924,
  "Ġdiscussion": 4925,
  "ĠjointĠ": 4926,
  "everyĠ": 4927,
  "uncil": 4928,
  "ĠtheĠeuropean": 4929,
  "programm": 4930,
  "trit": 4931,
  "unserenĠ": 4932,
  "fälleĠ": 4933,
  "Ġentsprechen": 4934,
  "rerĠ": 4935,
  "wichtigĠ": 4936,
  "sozialen": 4937,
  "unterschied": 4938,
  "Ġklein": 4939,
  "erĠund": 4940,
  "kanischen": 4941,
  "stellungĠ": 4942,
  "ĠzuĠeinem": 4943,
  "munik": 4944,
  ".Ġh.": 4945,
  "mindestĠ": 4946,
  "schä": 4947,
  "ten": 4948,
  "bezüglich": 4949,
  "zuĠder": 4950,
  "aleĠ": 4951,
  "inĠdieserĠ": 4952,
  "vertragĠ": 4953,
  "Ġüberzeu": 4954,
  "gingĠ": 4955,
  "Ġauffass": 4956,
  "lock": 4957,
  "od": 4958,
  "seeĠ": 4959,
  "Ġmili": 4960,
  "atĠa": 4961,
  "Ġstress": 4962,
  "ĠpartyĠ": 4963,
  "thatĠitĠis": 4964,
  "tyĠof": 4965,
  "Ġagricultur": 4966,
  "ĠattentionĠ": 4967,
  "Ġresear": 4968,
  "poss": 4969,
  ",Ġthat": 4970,
  "Ġterm": 4971,
  "msĠofĠthe": 4972,
  "Ġmonth": 4973,
  "creat": 4974,
  "Ġcontra": 4975,
  "ĠconventionĠ": 4976,
  "aboveĠall": 4977,
  "Ġsolution": 4978,
  "negoti": 4979,
  "plen": 4980,
  "Ġzurück": 4981,
  "Ġdebatte": 4982,
  "führenĠ": 4983,
  "sĠundĠdesĠratesĠ": 4984,
  "glück": 4985,
  "multi": 4986,
  "buch": 4987,
  "Ġsollte": 4988,
  "bildungĠ": 4989,
  "sag": 4990,
  "einzu": 4991,
  "Ġverpflich": 4992,
  "administra": 4993,
  "ĠimĠhinblick": 4994,
  "ĠdesĠeuropäischen": 4995,
  "gegenĠdieĠ": 4996,
  "az": 4997,
  "ĠderĠrat": 4998,
  "plom": 4999,
  "event": 5000,
  "ategor": 5001,
  "hens": 5002,
  "hind": 5003,
  "rori": 5004,
  "Ġcap": 5005,
  "Ġbor": 5006,
  "Ġdefen": 5007,
  "proposedĠ": 5008,
  "commissioner,Ġ": 5009,
  "Ġdialogu": 5010,
  "Ġauthoritie": 5011,
  "theĠfirst": 5012,
  "tax": 5013,
  "Ġcompanie": 5014,
  "ilities": 5015,
  "cannotĠ": 5016,
  "demokratischenĠ": 5017,
  "Ġprogram": 5018,
  "pal": 5019,
  "ĠjahrĠ": 5020,
  "besserungĠderĠ": 5021,
  "sungĠ": 5022,
  "ursach": 5023,
  "grunde": 5024,
  "sozialeĠ": 5025,
  "verwend": 5026,
  "Ġwerden,": 5027,
  "publik": 5028,
  "zielĠ": 5029,
  "Ġfä": 5030,
  "prinzip": 5031,
  "Ġune": 5032,
  "prei": 5033,
  "Ġgesundheit": 5034,
  "eĠge": 5035,
  "betra": 5036,
  "Ġschutz": 5037,
  "enĠge": 5038,
  "Ġfrei": 5039,
  "äl": 5040,
  "Ġfamili": 5041,
  "regierung": 5042,
  "stau": 5043,
  "Ġequal": 5044,
  "Ġgrenz": 5045,
  "ĠdarüberĠ": 5046,
  "derĠratĠ": 5047,
  "netz": 5048,
  "dom": 5049,
  "ĠtransportĠ": 5050,
  "oblig": 5051,
  "Ġillegal": 5052,
  "cum": 5053,
  "appropriateĠ": 5054,
  "titive": 5055,
  "thoseĠwhoĠ": 5056,
  "edĠa": 5057,
  "ĠplaceĠ": 5058,
  "ĠofĠco": 5059,
  "ĠextremelyĠ": 5060,
  "ĠiĠhave": 5061,
  "Ġenlargement": 5062,
  "comple": 5063,
  "including": 5064,
  "whichĠwill": 5065,
  "nother": 5066,
  "ifiedĠ": 5067,
  "eive": 5068,
  "ĠrightĠtoĠ": 5069,
  "more,Ġ": 5070,
  "vorzu": 5071,
  "wegenĠ": 5072,
  "frauĠpräsidentin,Ġ": 5073,
  "Ġlage": 5074,
  "Ġunterschied": 5075,
  "ĠseinerĠ": 5076,
  "besondersĠ": 5077,
  "Ġrau": 5078,
  "bevölkerungĠ": 5079,
  "zusätz": 5080,
  "Ġange": 5081,
  "gestal": 5082,
  "dauer": 5083,
  "ĠdaherĠ": 5084,
  "Ġallgemein": 5085,
  "bedeute": 5086,
  "zĠund": 5087,
  "behördenĠ": 5088,
  "Ġgroß": 5089,
  "imi": 5090,
  "innerhalb": 5091,
  "imĠzusammenhang": 5092,
  "ĠalsĠauch": 5093,
  "omentĠ": 5094,
  "rittenĠ": 5095,
  "Ġgi": 5096,
  "sovo": 5097,
  "ungĠderĠkommissionĠ": 5098,
  "zehnĠ": 5099,
  "hrt": 5100,
  ",Ġan": 5101,
  "Ġtal": 5102,
  "special": 5103,
  "yetĠ": 5104,
  "rodu": 5105,
  "ĠhaveĠa": 5106,
  ",Ġwhere": 5107,
  "veralĠ": 5108,
  "Ġenter": 5109,
  "tric": 5110,
  "ĠindustryĠ": 5111,
  "ningĠthe": 5112,
  "namelyĠ": 5113,
  "ĠregardsĠ": 5114,
  "standing": 5115,
  "singĠthe": 5116,
  "halten,": 5117,
  "Ġharmonis": 5118,
  "aly": 5119,
  "Ġeigent": 5120,
  "forsch": 5121,
  "einges": 5122,
  "erach": 5123,
  "meines": 5124,
  "ĠeinzelnenĠ": 5125,
  "bezie": 5126,
  "fall": 5127,
  "link": 5128,
  "tanĠ": 5129,
  "sin": 5130,
  "Ġgroßen": 5131,
  "gipfel": 5132,
  "Ġevent": 5133,
  "ary,Ġ": 5134,
  "Ġpension": 5135,
  "theĠnextĠitemĠisĠtheĠreportĠ": 5136,
  "Ġintro": 5137,
  "Ġissu": 5138,
  "Ġlocal": 5139,
  "colleag": 5140,
  "Ġreach": 5141,
  "nceĠofĠthe": 5142,
  "inĠour": 5143,
  "edĠwithĠ": 5144,
  "somethingĠ": 5145,
  "inĠmyĠ": 5146,
  "Ġresearch": 5147,
  "Ġdecisions": 5148,
  "Ġcause": 5149,
  "stĠofĠ": 5150,
  "itĠhas": 5151,
  "sĠwhoĠ": 5152,
  "homeĠ": 5153,
  "schutzĠder": 5154,
  "ĠinĠdieser": 5155,
  "wederĠ": 5156,
  "ungĠdieser": 5157,
  "Ġtä": 5158,
  "waren": 5159,
  "ausschußĠfürĠ": 5160,
  "daran": 5161,
  "Ġprojek": 5162,
  "itätĠderĠ": 5163,
  "einfach": 5164,
  "aufgabe": 5165,
  "Ġpal": 5166,
  "Ġerachte": 5167,
  "formi": 5168,
  "darf": 5169,
  "pay": 5170,
  "sorganis": 5171,
  "Ġsan": 5172,
  "Ġpress": 5173,
  "jahresĠ": 5174,
  "lücht": 5175,
  "chtling": 5176,
  "dam": 5177,
  "stro": 5178,
  "Ġvic": 5179,
  "Ġlimi": 5180,
  "hear": 5181,
  "ĠcallĠ": 5182,
  "butĠalsoĠ": 5183,
  "Ġresponsible": 5184,
  ",ĠandĠtheĠ": 5185,
  "ĠtheyĠareĠ": 5186,
  "ĠtheĠcommi": 5187,
  "ĠfreeĠ": 5188,
  "whichĠweĠ": 5189,
  "ĠtreatyĠ": 5190,
  "ĠopinionĠ": 5191,
  "llec": 5192,
  "Ġnetwork": 5193,
  "Ġfisheries": 5194,
  "Ġgrowth": 5195,
  "ĠproductsĠ": 5196,
  "Ġgerade": 5197,
  "dan": 5198,
  "Ġvorschla": 5199,
  "kolleginnenĠundĠkolle": 5200,
  "tet,Ġ": 5201,
  "erforderlich": 5202,
  "eigent": 5203,
  "äu": 5204,
  "rolleĠ": 5205,
  "weiß": 5206,
  "ländlichen": 5207,
  "Ġdavon": 5208,
  "ĠhilfeĠ": 5209,
  "bereiche": 5210,
  "gegens": 5211,
  "miß": 5212,
  "utier": 5213,
  "agend": 5214,
  "welcheĠ": 5215,
  "pt": 5216,
  "hinausĠ": 5217,
  "Ġverk": 5218,
  "folgenĠ": 5219,
  "integration": 5220,
  "asyl": 5221,
  "hoff": 5222,
  "dasĠeuropäischeĠparlament": 5223,
  "deleg": 5224,
  "cel": 5225,
  "ession": 5226,
  "ail": 5227,
  "rong": 5228,
  "Ġit": 5229,
  "Ġintrodu": 5230,
  "rural": 5231,
  "frastructur": 5232,
  "isĠtoĠ": 5233,
  "affairs,Ġ": 5234,
  "actĠthatĠthe": 5235,
  "allo": 5236,
  "Ġcurrent": 5237,
  "ĠresponsibilityĠ": 5238,
  ",ĠitĠisĠ": 5239,
  "anderĠ": 5240,
  "ĠabstimmungĠ": 5241,
  "Ġverantwor": 5242,
  "keinĠ": 5243,
  "Ġdrei": 5244,
  "jeden": 5245,
  "hebe": 5246,
  "punkte": 5247,
  "auffass": 5248,
  "enthal": 5249,
  "mittelnĠ": 5250,
  "mitĠeinerĠ": 5251,
  "nkre": 5252,
  "lüchtling": 5253,
  "Ġfranzö": 5254,
  "sön": 5255,
  "beteili": 5256,
  "weg": 5257,
  "Ġchi": 5258,
  "Ġthema": 5259,
  "dal": 5260,
  "wahr": 5261,
  "ub": 5262,
  "Ġnu": 5263,
  "itz": 5264,
  "ifizie": 5265,
  "illegal": 5266,
  "pendi": 5267,
  "ĠtodayĠ": 5268,
  "ollow": 5269,
  "ationĠfor": 5270,
  "refer": 5271,
  "Ġreading": 5272,
  "Ġrepresentative": 5273,
  "presentedĠ": 5274,
  "affec": 5275,
  "perhapsĠ": 5276,
  "ĠinĠter": 5277,
  "look": 5278,
  "nection": 5279,
  "ĠeveryĠ": 5280,
  "edĠtoĠtheĠ": 5281,
  "Ġlook": 5282,
  "issues": 5283,
  "weĠwill": 5284,
  "ĠistĠesĠ": 5285,
  "jenige": 5286,
  "Ġverwal": 5287,
  "muß.": 5288,
  "Ġsozialen": 5289,
  "Ġstellen": 5290,
  "Ġvertre": 5291,
  "ierten": 5292,
  "messen": 5293,
  "tĠhaben,": 5294,
  "tigerĠ": 5295,
  "ĠanĠdenĠ": 5296,
  "Ġvorgeschla": 5297,
  "führungĠderĠ": 5298,
  "auszu": 5299,
  "d))": 5300,
  "nce.": 5301,
  "ĠsowohlĠ": 5302,
  "verletz": 5303,
  "heiten": 5304,
  "Ġasyl": 5305,
  "aufmerk": 5306,
  "Ġmak": 5307,
  "Ġtrain": 5308,
  "Ġtechnologie": 5309,
  "typ": 5310,
  "problemsĠ": 5311,
  "regul": 5312,
  "thereĠisĠa": 5313,
  "ĠmemberĠ": 5314,
  "suchĠasĠtheĠ": 5315,
  "fiedĠ": 5316,
  "calledĠ": 5317,
  "eĠtoĠbeĠ": 5318,
  "acceptable": 5319,
  "avourĠofĠ": 5320,
  "ĠtoĠtakeĠ": 5321,
  ",Ġwith": 5322,
  "Ġapplic": 5323,
  "Ġflex": 5324,
  "imĠver": 5325,
  "icherheit": 5326,
  "spracheĠ": 5327,
  "Ġstruktur": 5328,
  "Ġfinanz": 5329,
  "aufge": 5330,
  "ĠteilĠ": 5331,
  "rischenĠ": 5332,
  "herr": 5333,
  "sogar": 5334,
  "ĠinĠeinerĠ": 5335,
  "den,": 5336,
  "Ġzunächst": 5337,
  "Ġhandel": 5338,
  "mill": 5339,
  "gt.": 5340,
  "müssenĠwirĠ": 5341,
  "Ġterri": 5342,
  "Ġausschus": 5343,
  "gehend": 5344,
  ",Ġbe": 5345,
  "gangenĠ": 5346,
  "landwi": 5347,
  "austri": 5348,
  "zed": 5349,
  "Ġinvestment": 5350,
  "verall": 5351,
  "wide": 5352,
  "marketĠ": 5353,
  "eĠfor": 5354,
  "Ġindividual": 5355,
  "Ġvio": 5356,
  "adoptedĠ": 5357,
  "ĠeuropeanĠparliamentĠandĠcouncilĠ": 5358,
  "activ": 5359,
  "agric": 5360,
  "leĠĠofĠtheĠ": 5361,
  "Ġlevel": 5362,
  "Ġfrench": 5363,
  "ĠmonetaryĠ": 5364,
  "Ġstep": 5365,
  "mentĠofĠtheĠ": 5366,
  "itselfĠ": 5367,
  "findĠ": 5368,
  "lebenĠ": 5369,
  "aufĠeine": 5370,
  "gen!": 5371,
  "nen,Ġdie": 5372,
  "n,Ġwel": 5373,
  "ungsĠundĠ": 5374,
  "liches": 5375,
  "Ġmä": 5376,
  "verbind": 5377,
  "Ġgenau": 5378,
  "Ġitali": 5379,
  "Ġwider": 5380,
  "Ġergeb": 5381,
  "Ġsind.": 5382,
  "general": 5383,
  "beidenĠ": 5384,
  "ĠseitĠ": 5385,
  "Ġfeh": 5386,
  "standenĠ": 5387,
  "Ġsolidar": 5388,
  "Ġtechnolo": 5389,
  "ĠzwischenĠdenĠ": 5390,
  "stin": 5391,
  "charta": 5392,
  "bestimmte": 5393,
  "ialsĠ": 5394,
  "leastĠ": 5395,
  "orig": 5396,
  "Ġmatter": 5397,
  "Ġfund": 5398,
  "ĠhopeĠthat": 5399,
  "yearsĠ": 5400,
  "Ġstructural": 5401,
  "Ġmight": 5402,
  "Ġcoordin": 5403,
  "plain": 5404,
  "ĠnotĠonlyĠ": 5405,
  "rought": 5406,
  "ĠbetterĠ": 5407,
  "Ġspeak": 5408,
  "ratherĠthanĠ": 5409,
  "constru": 5410,
  "ingĠcountries": 5411,
  "iterranean": 5412,
  "genau": 5413,
  ",Ġinsbesondere": 5414,
  "effek": 5415,
  "brachtĠ": 5416,
  "Ġkoordini": 5417,
  "derungĠderĠ": 5418,
  "vertreterĠ": 5419,
  "ĠzuĠeiner": 5420,
  "ausĠderĠ": 5421,
  "produktion": 5422,
  "ĠderĠbe": 5423,
  "Ġane": 5424,
  "Ġident": 5425,
  "halten.": 5426,
  "ventions": 5427,
  ":Ġdie": 5428,
  "rahmenĠdesĠ": 5429,
  "Ġerachtens": 5430,
  "euro": 5431,
  "gas": 5432,
  "aufĠdas": 5433,
  "ĠkosovoĠ": 5434,
  "Ġagend": 5435,
  "Ġasso": 5436,
  "external": 5437,
  "dĠfor": 5438,
  "danceĠ": 5439,
  "gic": 5440,
  "ĠasĠpossible": 5441,
  "ticallyĠ": 5442,
  "icallyĠ": 5443,
  "ĠtheĠcommissionĠto": 5444,
  "onĠthisĠ": 5445,
  ",ĠbyĠ": 5446,
  "role": 5447,
  "suc": 5448,
  "ĠwhichĠweĠ": 5449,
  "Ġclose": 5450,
  "dĠa": 5451,
  "active": 5452,
  "whatĠis": 5453,
  "atingĠto": 5454,
  "report,Ġ": 5455,
  "wishĠ": 5456,
  "ĠwhichĠthe": 5457,
  "areĠnotĠ": 5458,
  "deut": 5459,
  "dok": 5460,
  "lause": 5461,
  "rak": 5462,
  "ĠmöglichkeitĠ": 5463,
  "hätte": 5464,
  "hundert": 5465,
  "rägenĠ": 5466,
  "frastruktur": 5467,
  "begin": 5468,
  "daten": 5469,
  "hinsichtlichĠder": 5470,
  "haltungĠderĠ": 5471,
  "gerich": 5472,
  "öst": 5473,
  "Ġbesteht": 5474,
  "betri": 5475,
  "n;": 5476,
  "Ġgemeinschafts": 5477,
  "ehenĠ": 5478,
  "Ġweise": 5479,
  "ander": 5480,
  "betrifft:": 5481,
  "aufnahme": 5482,
  "ungspolitik": 5483,
  "verantwortungĠ": 5484,
  "giesischenĠ": 5485,
  "ssab": 5486,
  "mensionĠ": 5487,
  "bio": 5488,
  "leicht": 5489,
  "longĠ": 5490,
  "sni": 5491,
  "tus": 5492,
  "ers,Ġ": 5493,
  "ca": 5494,
  "europe,Ġ": 5495,
  "Ġhear": 5496,
  "tulateĠ": 5497,
  "ĠbeenĠs": 5498,
  "ĠenergyĠ": 5499,
  "Ġear": 5500,
  "mentio": 5501,
  "onceĠagain": 5502,
  "afegu": 5503,
  "nedĠto": 5504,
  "houseĠ": 5505,
  "ĠinterestĠ": 5506,
  "ĠportugueseĠ": 5507,
  "french": 5508,
  "subject:": 5509,
  "Ġnations": 5510,
  "ĠcanĠbeĠ": 5511,
  "Ġrac": 5512,
  "gesprochen": 5513,
  "einbar": 5514,
  "Ġhinsichtlich": 5515,
  "allerdingsĠ": 5516,
  "imĠnamenĠdesĠausschussesĠfürĠ": 5517,
  "inĠeiner": 5518,
  "abschließendĠ": 5519,
  "Ġlieg": 5520,
  "zent": 5521,
  "t,ĠsondernĠ": 5522,
  "torenĠ": 5523,
  "kollegenĠ": 5524,
  "ĠkönnenĠ": 5525,
  "solidar": 5526,
  "t;": 5527,
  "s,ĠderĠ": 5528,
  "Ġabge": 5529,
  "Ġstimme": 5530,
  "Ġpf": 5531,
  "wirĠdieĠ": 5532,
  ").": 5533,
  "Ġportugie": 5534,
  "ailĠ": 5535,
  "pass": 5536,
  "drei": 5537,
  "sü": 5538,
  "Ġhand": 5539,
  "Ġaudi": 5540,
  "notwendigĠ": 5541,
  "ortsĠ": 5542,
  "lera": 5543,
  "timme": 5544,
  "rass": 5545,
  "auto": 5546,
  "afri": 5547,
  "Ġeurope,Ġ": 5548,
  "iesĠ": 5549,
  "Ġmedia": 5550,
  "contain": 5551,
  "solutelyĠ": 5552,
  "iesĠof": 5553,
  "recentĠ": 5554,
  "involve": 5555,
  "moreĠthan": 5556,
  "ĠleastĠ": 5557,
  "lyĠin": 5558,
  "ĠtoĠmakeĠ": 5559,
  "didateĠ": 5560,
  "themselve": 5561,
  "believe": 5562,
  "thatĠa": 5563,
  "deci": 5564,
  "furthermore,Ġ": 5565,
  "ploit": 5566,
  "publicĠhealth": 5567,
  "ihremĠ": 5568,
  "teĠich": 5569,
  "Ġbill": 5570,
  "liegenĠ": 5571,
  "desĠeuropäischenĠparlamentsĠundĠdesĠratesĠ": 5572,
  "weiteren": 5573,
  "ĠländernĠ": 5574,
  "nö": 5575,
  "notwendigkeitĠ": 5576,
  "Ġteil": 5577,
  "Ġberücksichtig": 5578,
  "ökon": 5579,
  "gument": 5580,
  "burgĠ": 5581,
  "()ĠĠĠcĠĠ(cos": 5582,
  "tĠhat.": 5583,
  "Ġgrundsätz": 5584,
  "Ġbewert": 5585,
  "bemü": 5586,
  "handlungĠ": 5587,
  "lege": 5588,
  "mutĠ": 5589,
  "sektorĠ": 5590,
  "bekannt": 5591,
  "etenĠ": 5592,
  "betreffen": 5593,
  "sorg": 5594,
  "ĠfürĠeine": 5595,
  "sprach": 5596,
  "yon": 5597,
  "sultation": 5598,
  "andererĠ": 5599,
  "grundsätz": 5600,
  "Ġche": 5601,
  "ssabon": 5602,
  "ches": 5603,
  "Ġav": 5604,
  "darin": 5605,
  "bia": 5606,
  "mersĠ": 5607,
  "pression": 5608,
  "ysĠ": 5609,
  "ampa": 5610,
  "aig": 5611,
  "seem": 5612,
  "t,ĠdassĠ": 5613,
  "ciliationĠ": 5614,
  "whole": 5615,
  "cluding": 5616,
  "theĠcommissionĠis": 5617,
  "tingĠa": 5618,
  "angerous": 5619,
  "ĠwithĠregar": 5620,
  "Ġmove": 5621,
  "either": 5622,
  "ĠwishĠ": 5623,
  "Ġtogether": 5624,
  "Ġaffec": 5625,
  "awareĠ": 5626,
  "Ġeduc": 5627,
  "ĠsuchĠasĠ": 5628,
  "commissionerĠ": 5629,
  "cooperationĠ": 5630,
  "direc": 5631,
  "ĠhopeĠ": 5632,
  "ĠlegislationĠ": 5633,
  "ĠreallyĠ": 5634,
  "relations": 5635,
  "isingĠ": 5636,
  "nfĠ": 5637,
  "Ġmal": 5638,
  "ĠgroßeĠ": 5639,
  "Ġhervor": 5640,
  "Ġumfasse": 5641,
  "inĠeuropa": 5642,
  "n,Ġdoch": 5643,
  "ĠkollegenĠ": 5644,
  "ildĠ": 5645,
  "hörde": 5646,
  "zunächst": 5647,
  "kriteri": 5648,
  "Ġbeding": 5649,
  "aufbau": 5650,
  "unseresĠ": 5651,
  "nungenĠ": 5652,
  "ampaig": 5653,
  "Ġsubstan": 5654,
  "züg": 5655,
  "Ġhau": 5656,
  "chst": 5657,
  "äfts": 5658,
  "Ġdritt": 5659,
  "entwurfĠ": 5660,
  "budgetĠ": 5661,
  "verstärk": 5662,
  "ĠrechteĠder": 5663,
  "Ġgrundrechte": 5664,
  "msterdamĠ": 5665,
  "n,ĠinĠ": 5666,
  "ĠzumĠausdruck": 5667,
  "stage": 5668,
  "signi": 5669,
  "Ġexternal": 5670,
  "useĠ": 5671,
  "Ġpeac": 5672,
  "week": 5673,
  "feel": 5674,
  "edĠfor": 5675,
  "specificallyĠ": 5676,
  "job": 5677,
  "Ġou": 5678,
  "eĠinĠthe": 5679,
  "companie": 5680,
  "partĠ": 5681,
  "Ġassista": 5682,
  "ĠagreementsĠ": 5683,
  "notĠto": 5684,
  "gewal": 5685,
  "ones": 5686,
  "großeĠ": 5687,
  "ĠbeidenĠ": 5688,
  "urdenĠ": 5689,
  "bü": 5690,
  "tungss": 5691,
  "änderungenĠ": 5692,
  "ĠbedeutungĠ": 5693,
  "Ġziele": 5694,
  "garan": 5695,
  "wichtigenĠ": 5696,
  "histor": 5697,
  "ĠinĠderĠeuropäischenĠunion": 5698,
  "effizie": 5699,
  "ĠzwischenĠ": 5700,
  "troffenen": 5701,
  ",Ġun": 5702,
  "Ġdifferen": 5703,
  "ihresĠ": 5704,
  "Ġanerk": 5705,
  "tenden": 5706,
  "Ġmater": 5707,
  "daßĠdie": 5708,
  "raumĠ": 5709,
  "fisch": 5710,
  "Ġlink": 5711,
  "nĠunse": 5712,
  "Ġchin": 5713,
  "fragen,": 5714,
  "fäl": 5715,
  "flug": 5716,
  "lug": 5717,
  "vestitionenĠ": 5718,
  "sĠan": 5719,
  "hu": 5720,
  "zeuge": 5721,
  "Ġwater": 5722,
  "sum": 5723,
  "origin": 5724,
  "safetyĠ": 5725,
  "minationĠ": 5726,
  "unfortun": 5727,
  "ĠdraftĠ": 5728,
  "experie": 5729,
  "Ġgrant": 5730,
  "Ġassess": 5731,
  "defenceĠ": 5732,
  "proper": 5733,
  "ĠmoneyĠ": 5734,
  "ĠaboutĠtheĠ": 5735,
  "ĠnotĠbe": 5736,
  "Ġenvironment,Ġ": 5737,
  "zö": 5738,
  "prak": 5739,
  "kur": 5740,
  "griffen": 5741,
  "enĠoderĠ": 5742,
  "Ġebe": 5743,
  "Ġmaß": 5744,
  "Ġzweifel": 5745,
  "fahrĠ": 5746,
  "enĠinĠ": 5747,
  "Ġgil": 5748,
  "sie": 5749,
  "ĠpräsidentschaftĠ": 5750,
  "tagĠ": 5751,
  "Ġwissens": 5752,
  "chaf": 5753,
  "aktiv": 5754,
  "aĠ": 5755,
  "rische": 5756,
  "verhandlungenĠ": 5757,
  "ierteĠ": 5758,
  "ĠgegenĠdieĠ": 5759,
  "pop": 5760,
  "Ġnatur": 5761,
  "queĠ": 5762,
  "\"Ġ.": 5763,
  "s,Ġin": 5764,
  "promo": 5765,
  "flictĠ": 5766,
  "peac": 5767,
  "Ġline": 5768,
  "alsoĠlikeĠto": 5769,
  "recommend": 5770,
  "ĠpartĠofĠthe": 5771,
  "soĠthat": 5772,
  "coordin": 5773,
  "theĠcommissionĠto": 5774,
  "mrĠpresident,Ġi": 5775,
  "structural": 5776,
  "asĠregardsĠ": 5777,
  "getĠ": 5778,
  "sureĠ": 5779,
  "edĠthatĠ": 5780,
  "risk": 5781,
  "ĠmilitaryĠ": 5782,
  "meeting": 5783,
  "inoffic": 5784,
  "mrĠpresident,ĠladiesĠandĠgentlemen,": 5785,
  "ĠconcernĠ": 5786,
  "itarian": 5787,
  "acco": 5788,
  "erungĠdesĠ": 5789,
  "Ġhat.": 5790,
  "prach": 5791,
  "beschränk": 5792,
  "enĠsie": 5793,
  "wurdenĠ": 5794,
  "niss": 5795,
  "auswirkungenĠ": 5796,
  "ĠgleichzeitigĠ": 5797,
  "tlicher": 5798,
  "Ġberücksich": 5799,
  "ogĠ": 5800,
  "erwar": 5801,
  "ressour": 5802,
  "umfasse": 5803,
  "Ġwach": 5804,
  "ĠausĠdem": 5805,
  "hervor": 5806,
  "gun": 5807,
  "Ġwirtschafts": 5808,
  "rier": 5809,
  ",ĠalsĠ": 5810,
  "Ġgemach": 5811,
  "hoch": 5812,
  "Ġwahr": 5813,
  "gül": 5814,
  "Ġameri": 5815,
  "ollar": 5816,
  "beruf": 5817,
  "kes": 5818,
  "regelungĠ": 5819,
  "ziell": 5820,
  "Ġbra": 5821,
  "lang": 5822,
  "ht.": 5823,
  "eng": 5824,
  "Ġfischerei": 5825,
  "technologie": 5826,
  "tone": 5827,
  "ivilĠ": 5828,
  "Ġeth": 5829,
  "ĠbudgetĠ": 5830,
  "begrü": 5831,
  "Ġai": 5832,
  "one,Ġ": 5833,
  "limi": 5834,
  "oldĠ": 5835,
  "Ġless": 5836,
  "smallĠ": 5837,
  "teria": 5838,
  "centre": 5839,
  "whichĠi": 5840,
  "porting": 5841,
  "opinionĠ": 5842,
  "simplyĠ": 5843,
  "ationĠtoĠthe": 5844,
  "ĠadoptedĠ": 5845,
  "vereig": 5846,
  "nevertheless": 5847,
  "ĠcontrolĠ": 5848,
  "Ġprec": 5849,
  "amongĠ": 5850,
  "ast,Ġ": 5851,
  "ement,Ġ": 5852,
  "member": 5853,
  "futureĠ": 5854,
  "eĠandĠhomeĠ": 5855,
  "Ġdecide": 5856,
  "say": 5857,
  "vereinigtenĠ": 5858,
  "Ġerinner": 5859,
  "legenĠ": 5860,
  "Ġsetz": 5861,
  "en,ĠsondernĠ": 5862,
  "zeitraumĠ": 5863,
  "ĠänderungĠderĠ": 5864,
  "fürĠeinenĠ": 5865,
  "habenĠwirĠ": 5866,
  "gebiete": 5867,
  "vemberĠ": 5868,
  "zweiteĠ": 5869,
  "österreichĠ": 5870,
  "ökonom": 5871,
  "Ġlie": 5872,
  "parte": 5873,
  "aberĠauch": 5874,
  "Ġstaaten": 5875,
  "Ġbereichen": 5876,
  "fällen": 5877,
  "sĠzu": 5878,
  "imĠbereichĠderĠ": 5879,
  "itim": 5880,
  "tĠsind": 5881,
  "Ġzuständ": 5882,
  "ĠderĠeu": 5883,
  "ĠabgeordnetenĠ": 5884,
  "wind": 5885,
  "ĠimĠrahmenĠderĠ": 5886,
  "läuf": 5887,
  "Ġaußen": 5888,
  "konfli": 5889,
  "Ġgegenwärt": 5890,
  ",ĠdieĠsich": 5891,
  "unterstützungĠ": 5892,
  "Ġinf": 5893,
  "Ġren": 5894,
  "()ĠĠĠcĠĠ(cns": 5895,
  "quis": 5896,
  "Ġsimp": 5897,
  "tate": 5898,
  "pric": 5899,
  "chil": 5900,
  "ĠexpressĠ": 5901,
  "ofĠtheĠeuropeanĠunion": 5902,
  "Ġindustry,Ġ": 5903,
  "sĠwhichĠare": 5904,
  "particip": 5905,
  "societyĠ": 5906,
  "moneyĠ": 5907,
  "ĠratherĠ": 5908,
  "impo": 5909,
  "ĠlackĠofĠ": 5910,
  "turnĠ": 5911,
  "ĠhaveĠtoĠ": 5912,
  "monitor": 5913,
  "theĠcommunityĠ": 5914,
  "edĠonĠtheĠ": 5915,
  "becauseĠthe": 5916,
  "ĠonĠthis": 5917,
  "ĠsecurityĠandĠ": 5918,
  "thirdĠ": 5919,
  "Ġservices": 5920,
  "yĠtheĠ": 5921,
  "ted.": 5922,
  "drenĠ": 5923,
  "ĠlösungĠ": 5924,
  "Ġbit": 5925,
  "fangĠ": 5926,
  "öffentlichkeitĠ": 5927,
  "Ġsicherheits": 5928,
  "gewährleis": 5929,
  "ört": 5930,
  "ĠundĠdes": 5931,
  "entwickel": 5932,
  "die": 5933,
  "wenigerĠ": 5934,
  "ĠundĠich": 5935,
  "umĠeine": 5936,
  "esse": 5937,
  "Ġreform": 5938,
  "darstell": 5939,
  "mas": 5940,
  "tradition": 5941,
  "opfer": 5942,
  "pak": 5943,
  "findenĠ": 5944,
  "diskri": 5945,
  "rimini": 5946,
  "Ġfebru": 5947,
  "ĠabkommenĠ": 5948,
  "israel": 5949,
  "angehö": 5950,
  "span": 5951,
  "Ġdemon": 5952,
  "diskrimini": 5953,
  "Ġminim": 5954,
  "commissionĠ": 5955,
  "appear": 5956,
  "forĠthisĠ": 5957,
  "ĠbeforeĠ": 5958,
  ",ĠinĠparticular": 5959,
  "ĠlikeĠ": 5960,
  "goingĠto": 5961,
  "celle": 5962,
  "Ġcohesion": 5963,
  "guideline": 5964,
  "ĠuseĠofĠ": 5965,
  "trong": 5966,
  "oftenĠ": 5967,
  "throughoutĠ": 5968,
  "haveĠthe": 5969,
  "notĠjustĠ": 5970,
  "Ġpaper": 5971,
  "ĠensureĠthat": 5972,
  "whose": 5973,
  "saidĠ": 5974,
  "ĠĠmillionĠ": 5975,
  "ations,Ġ": 5976,
  "ĠfactĠthat": 5977,
  "adequ": 5978,
  "Ġpower": 5979,
  "ĠthoseĠwhoĠ": 5980,
  "advantage": 5981,
  "ĠpresidencyĠ": 5982,
  "Ġcitizens'": 5983,
  "portugueseĠ": 5984,
  "Ġchil": 5985,
  "politik,Ġ": 5986,
  "ĠbeimĠ": 5987,
  "ichĠglaube": 5988,
  "ĠkolleginnenĠundĠkolle": 5989,
  "müß": 5990,
  "formenĠ": 5991,
  "Ġnationalen": 5992,
  "Ġwirtschaftlichen": 5993,
  "Ġwichtig": 5994,
  "prioritä": 5995,
  "Ġkennt": 5996,
  "analy": 5997,
  "losigkeitĠ": 5998,
  "ermöglich": 5999,
  "hilf": 6000,
  "itäts": 6001,
  "ĠmeinesĠ": 6002,
  "tim": 6003,
  "ungenĠzu": 6004,
  "Ġtransparen": 6005,
  "damenĠundĠ": 6006,
  "menĠundĠher": 6007,
  "handen": 6008,
  "xem": 6009,
  "Ġcharter": 6010,
  "erweiseĠ": 6011,
  "lastungĠ": 6012,
  "gesamtenĠ": 6013,
  "plomat": 6014,
  "Ġinnere": 6015,
  "dürf": 6016,
  "en,Ġdas": 6017,
  "ix": 6018,
  "igungĠ": 6019,
  "ordent": 6020,
  "tant": 6021,
  "mittelmeer": 6022,
  "tishĠ": 6023,
  "Ġlegislative": 6024,
  "agrap": 6025,
  "s;": 6026,
  "sĠat": 6027,
  "approach": 6028,
  "ĠyoungĠ": 6029,
  "ĠvotedĠ": 6030,
  "titude": 6031,
  "ĠtheĠcommitte": 6032,
  "promote": 6033,
  "d,ĠandĠ": 6034,
  "Ġconsideration": 6035,
  "rucial": 6036,
  "fficie": 6037,
  "document": 6038,
  "discussion": 6039,
  "enlargement": 6040,
  "ocus": 6041,
  "ĠsocietyĠ": 6042,
  "ĠwhyĠ": 6043,
  "ĠcentralĠ": 6044,
  "deter": 6045,
  "iĠmustĠ": 6046,
  "erc": 6047,
  "Ġvalues": 6048,
  "ĠthereĠisĠ": 6049,
  "contra": 6050,
  "rige": 6051,
  "festgeleg": 6052,
  "damenĠundĠher": 6053,
  "bewuß": 6054,
  "ĠamĠ.": 6055,
  "lediglich": 6056,
  "stellungnahme": 6057,
  "Ġunternehme": 6058,
  "gänz": 6059,
  "bareĠ": 6060,
  "lösungĠ": 6061,
  "Ġprak": 6062,
  "enom": 6063,
  ",ĠinĠder": 6064,
  "Ġsek": 6065,
  "Ġtats": 6066,
  "er,Ġ": 6067,
  "kurz": 6068,
  "gemach": 6069,
  "spricht": 6070,
  "verpflichtungenĠ": 6071,
  "tatsach": 6072,
  "ĠunterstützungĠ": 6073,
  "technolog": 6074,
  "rüssel": 6075,
  "franzö": 6076,
  "rechtss": 6077,
  "wissenschaf": 6078,
  "ĠmillionenĠ": 6079,
  "mittlungs": 6080,
  "fürwor": 6081,
  "bereichenĠ": 6082,
  "Ġgestell": 6083,
  "zugangĠ": 6084,
  "poll": 6085,
  "obwohlĠ": 6086,
  "lö": 6087,
  "gegebenĠ": 6088,
  "ĠentschließungĠ": 6089,
  "\".": 6090,
  "personal": 6091,
  "Ġdemokrati": 6092,
  "fak": 6093,
  "Ġperspe": 6094,
  ",ĠinĠdem": 6095,
  "versal": 6096,
  "Ġmer": 6097,
  "rightĠtoĠ": 6098,
  "step": 6099,
  "Ġorigin": 6100,
  "train": 6101,
  "Ġseem": 6102,
  "y,ĠandĠ": 6103,
  "Ġdocument": 6104,
  "Ġlive": 6105,
  "ofĠthese": 6106,
  "redĠto": 6107,
  "expe": 6108,
  "ĠisĠto": 6109,
  "nceĠto": 6110,
  "ately,Ġ": 6111,
  "numberĠof": 6112,
  "ĠcertainlyĠ": 6113,
  "Ġenable": 6114,
  "asĠfar": 6115,
  "russel": 6116,
  "Ġbenefit": 6117,
  "diction": 6118,
  "dicial": 6119,
  "ĠwhichĠwill": 6120,
  "ofĠour": 6121,
  "Ġlif": 6122,
  "relyĠ": 6123,
  "spective": 6124,
  "cooper": 6125,
  "fluß": 6126,
  "itätĠundĠ": 6127,
  "pte": 6128,
  "tätig": 6129,
  "indemĠ": 6130,
  "tenĠwirĠ": 6131,
  "pel": 6132,
  "antra": 6133,
  "koordini": 6134,
  "öni": 6135,
  "trate": 6136,
  "amĠ.": 6137,
  "schwer": 6138,
  "ang": 6139,
  "Ġfrauen": 6140,
  "verfü": 6141,
  "beitragĠ": 6142,
  "tĠundĠderĠ": 6143,
  "wirtschaftĠ": 6144,
  "ĠbeispielsweiseĠ": 6145,
  "erachtens": 6146,
  "gute": 6147,
  "solcheĠ": 6148,
  "Ġliberali": 6149,
  "Ġunabhäng": 6150,
  "verä": 6151,
  "meinesĠerachtens": 6152,
  "Ġlebe": 6153,
  "differen": 6154,
  "erreicht": 6155,
  "jeder": 6156,
  "fugni": 6157,
  "mutz": 6158,
  "Ġgri": 6159,
  "jenigenĠ": 6160,
  "Ġeinzi": 6161,
  "ĠausschussesĠ": 6162,
  "sitiv": 6163,
  "inĠderĠeuropäischenĠunion": 6164,
  "athĠ": 6165,
  "Ġgrun": 6166,
  "Ġbalkan": 6167,
  "Ġsou": 6168,
  "ĠtextĠ": 6169,
  "schnell": 6170,
  "cken": 6171,
  "Ġtro": 6172,
  "Ġb.": 6173,
  "offer": 6174,
  "n,Ġwobei": 6175,
  "dap": 6176,
  "medĠ": 6177,
  "tsĠin": 6178,
  "econom": 6179,
  "Ġsigni": 6180,
  ",Ġat": 6181,
  "previous": 6182,
  "eivedĠ": 6183,
  "currentlyĠ": 6184,
  "Ġdisas": 6185,
  "weĠcan": 6186,
  "Ġemphasi": 6187,
  "Ġmaintain": 6188,
  "Ġconclus": 6189,
  "theĠcommissionĠhasĠ": 6190,
  "address": 6191,
  "ĠstrategyĠ": 6192,
  ",ĠbutĠalsoĠ": 6193,
  "Ġpromote": 6194,
  "ĠsmallĠ": 6195,
  "ought": 6196,
  "associ": 6197,
  "ĠclearlyĠ": 6198,
  "ĠunderĠthe": 6199,
  "Ġcriminal": 6200,
  "freeĠ": 6201,
  "actuallyĠ": 6202,
  "enceĠ": 6203,
  "ilding": 6204,
  "ations.": 6205,
  "moun": 6206,
  "doub": 6207,
  "Ġconcerns": 6208,
  "irmĠ": 6209,
  "ieldĠof": 6210,
  "ĠappropriateĠ": 6211,
  "Ġconstitution": 6212,
  "ffor": 6213,
  ".Ġb": 6214,
  "dieĠer": 6215,
  "dokument": 6216,
  "nachĠderĠtagesordnungĠfolgtĠderĠ": 6217,
  "n,ĠdieĠdie": 6218,
  "unio": 6219,
  "Ġkomm": 6220,
  "t,ĠwieĠ": 6221,
  "Ġangesicht": 6222,
  "höh": 6223,
  "Ġ(kom": 6224,
  "Ġjanu": 6225,
  "wachst": 6226,
  "Ġerarbeit": 6227,
  "folgerungenĠ": 6228,
  "außerdemĠ": 6229,
  "jenigen,Ġdie": 6230,
  "Ġru": 6231,
  "öl": 6232,
  "gesehenĠ": 6233,
  "Ġdeta": 6234,
  "Ġauto": 6235,
  "fus": 6236,
  "ĠkeinĠ": 6237,
  "sierungĠderĠ": 6238,
  "kommissions": 6239,
  "ĠmeinemĠ": 6240,
  "beobach": 6241,
  "Ġindem": 6242,
  "türkei": 6243,
  "Ġfunktion": 6244,
  "Ġisrael": 6245,
  ",ĠdannĠ": 6246,
  "diovis": 6247,
  "mensch": 6248,
  "pendent": 6249,
  "Ġliberalis": 6250,
  "tilĠ": 6251,
  "amilyĠ": 6252,
  "lianceĠ": 6253,
  "ausschussĠ": 6254,
  "out,Ġ": 6255,
  "establishĠ": 6256,
  "ĠtoĠthis": 6257,
  "Ġsoon": 6258,
  "cumstances": 6259,
  "onĠtheĠproposalĠforĠa": 6260,
  "tĠofĠview": 6261,
  "establishing": 6262,
  "viding": 6263,
  ",ĠofĠcourse,Ġ": 6264,
  "Ġstrengthen": 6265,
  "ulyĠ": 6266,
  "stress": 6267,
  "eover": 6268,
  "Ġwelcome": 6269,
  "Ġdirec": 6270,
  ",ĠsinceĠ": 6271,
  "basedĠonĠ": 6272,
  "theĠcon": 6273,
  "overĠtheĠ": 6274,
  "consu": 6275,
  "onourable": 6276,
  "mayĠbe": 6277,
  "ld.": 6278,
  "ĠandĠconsumerĠ": 6279,
  "ĠinĠeinemĠ": 6280,
  "nissen": 6281,
  "sinne": 6282,
  "nĠzu": 6283,
  "beimĠ": 6284,
  "gĠdesĠ": 6285,
  "fähi": 6286,
  "landsĠ": 6287,
  "gesamtĠ": 6288,
  "vomĠ.": 6289,
  "wirtschafts": 6290,
  "träge": 6291,
  "märk": 6292,
  "interessen": 6293,
  "regierungskonferenz": 6294,
  "tine": 6295,
  "Ġje": 6296,
  "andererseitsĠ": 6297,
  "Ġgele": 6298,
  "vorbereit": 6299,
  "entschließungĠ": 6300,
  "bill": 6301,
  "efĠ": 6302,
  "sĠvon": 6303,
  "Ġunserem": 6304,
  "nan": 6305,
  "militä": 6306,
  "erwäh": 6307,
  "tokoll": 6308,
  "demon": 6309,
  "seinen": 6310,
  "Ġkor": 6311,
  "benefit": 6312,
  "Ġel": 6313,
  "prehens": 6314,
  "ester": 6315,
  "Ġtask": 6316,
  "everĠ": 6317,
  "firstly,Ġ": 6318,
  "Ġestablishe": 6319,
  "regulations": 6320,
  "thatĠweĠareĠ": 6321,
  "ĠofĠtheseĠ": 6322,
  "Ġarticle": 6323,
  "andĠmedi": 6324,
  "medium": 6325,
  "article": 6326,
  "ĠtheĠcommunityĠ": 6327,
  "ly,ĠtheĠ": 6328,
  "upon": 6329,
  "combat": 6330,
  "Ġmarket,Ġ": 6331,
  "tĠwith": 6332,
  "ĠpointĠof": 6333,
  "ĠmonitoringĠ": 6334,
  "Ġessential": 6335,
  "talk": 6336,
  "reach": 6337,
  ",ĠonĠthe": 6338,
  "rights,Ġ": 6339,
  "tĠwordenĠ": 6340,
  "n,Ġob": 6341,
  "hnt": 6342,
  "gefähr": 6343,
  "Ġkoh": 6344,
  "elek": 6345,
  "Ġjen": 6346,
  "Ġbetreffen": 6347,
  "gewäh": 6348,
  "enĠkan": 6349,
  "ulf": 6350,
  "Ġerst": 6351,
  "ziert": 6352,
  "Ġänderungsanträge": 6353,
  "abgeordnete": 6354,
  "Ġeinzel": 6355,
  "wesentlichen": 6356,
  "Ġhoch": 6357,
  "ierungĠderĠ": 6358,
  "enĠvon": 6359,
  "deu": 6360,
  "e,Ġdaß": 6361,
  "kommunik": 6362,
  "ĠĠder": 6363,
  "nungshof": 6364,
  "mitĠeinemĠ": 6365,
  "stark": 6366,
  "forderungĠ": 6367,
  "unde": 6368,
  "hinter": 6369,
  "sper": 6370,
  "weiterhinĠ": 6371,
  "Ġpersonal": 6372,
  "Ġvis": 6373,
  "Ġtri": 6374,
  "ĠsituationĠin": 6375,
  "Ġstrategie": 6376,
  ".Ġb.": 6377,
  "luft": 6378,
  "promis": 6379,
  "thernĠ": 6380,
  "Ġassoci": 6381,
  "itiesĠandĠ": 6382,
  "duringĠtheĠ": 6383,
  "Ġpropose": 6384,
  "ĠonĠa": 6385,
  "ities.": 6386,
  "inĠitsĠ": 6387,
  "ĠprocedureĠ": 6388,
  "ĠonceĠ": 6389,
  "Ġhighlight": 6390,
  "ĠeconomicĠand": 6391,
  "regarding": 6392,
  "ĠcreateĠ": 6393,
  "ationsĠofĠ": 6394,
  "cul": 6395,
  "ĠmemberĠstateĠ": 6396,
  "lyingĠ": 6397,
  "threeĠ": 6398,
  ",Ġwhile": 6399,
  "unitedĠstate": 6400,
  "itĠwas": 6401,
  "Ġwährend": 6402,
  "dieĠein": 6403,
  "istischenĠ": 6404,
  "Ġwettbewerbs": 6405,
  "zweifel": 6406,
  "ĠausspracheĠ": 6407,
  ",ĠdemĠ": 6408,
  "tätigkeitĠ": 6409,
  "Ġenergie": 6410,
  "n,ĠwelcheĠ": 6411,
  "Ġbedeute": 6412,
  "jugend": 6413,
  "en,ĠdamitĠ": 6414,
  "gewichtĠ": 6415,
  ",Ġdurch": 6416,
  "zemberĠ": 6417,
  "organ": 6418,
  "mäßigĠ": 6419,
  ",ĠinĠden": 6420,
  "xen": 6421,
  "subsidiar": 6422,
  "Ġkra": 6423,
  "n!": 6424,
  "diskussion": 6425,
  "Ġviel": 6426,
  "en,ĠwieĠ": 6427,
  "nichtĠdieĠ": 6428,
  "müss": 6429,
  "bundenĠ": 6430,
  "eĠdesĠ": 6431,
  "china": 6432,
  "gruppeĠ": 6433,
  "einzel": 6434,
  "justizĠund": 6435,
  "tter": 6436,
  "nami": 6437,
  "dritt": 6438,
  "ulier": 6439,
  "Ġminister": 6440,
  "existe": 6441,
  "telleĠ": 6442,
  ",Ġ,Ġ,Ġ,Ġ": 6443,
  "ez": 6444,
  "individual": 6445,
  "shor": 6446,
  "Ġindep": 6447,
  "ĠfindĠ": 6448,
  "withĠaĠviewĠtoĠ": 6449,
  "forceĠ": 6450,
  "procedures": 6451,
  "amoun": 6452,
  "edĠup": 6453,
  "ĠtheĠcha": 6454,
  "callĠ": 6455,
  "ĠthereĠare": 6456,
  "include": 6457,
  "matterĠ": 6458,
  "ĠquiteĠ": 6459,
  "ĠtheĠcommission'Ġs": 6460,
  "ofĠthose": 6461,
  "decis": 6462,
  "ationĠofĠa": 6463,
  "andĠa": 6464,
  "ĠareaĠofĠ": 6465,
  "local": 6466,
  "but,Ġ": 6467,
  ":Ġthe": 6468,
  "ationsĠand": 6469,
  "ĠhavingĠ": 6470,
  "ĠcivilĠ": 6471,
  "kishĠ": 6472,
  "ĠanĠex": 6473,
  "Ġdiscri": 6474,
  "inglyĠ": 6475,
  "remain": 6476,
  "zusamme": 6477,
  "hinge": 6478,
  "Ġakzep": 6479,
  "nünf": 6480,
  "rhundert": 6481,
  "plä": 6482,
  "nzei": 6483,
  "en,ĠdennĠ": 6484,
  "n,ĠdaßĠsie": 6485,
  "sof": 6486,
  "vertragsĠ": 6487,
  "rechtsĠ": 6488,
  "Ġkontroll": 6489,
  "verträge": 6490,
  "anerken": 6491,
  "Ġspan": 6492,
  "s,Ġdas": 6493,
  "Ġusa": 6494,
  "ĠvielenĠ": 6495,
  "globalis": 6496,
  "enĠsin": 6497,
  "heu": 6498,
  "natur": 6499,
  "Ġinformations": 6500,
  "griff": 6501,
  "modell": 6502,
  "güns": 6503,
  "Ġplen": 6504,
  "ratspräsident": 6505,
  "Ġvolksgesundheit": 6506,
  "c.": 6507,
  "practic": 6508,
  "Ġpoll": 6509,
  "impro": 6510,
  "sisĠ": 6511,
  "controlĠ": 6512,
  "Ġaccor": 6513,
  "month": 6514,
  "alsoĠbe": 6515,
  "wise": 6516,
  "Ġaddress": 6517,
  "Ġrepe": 6518,
  "betterĠ": 6519,
  "ĠwishĠto": 6520,
  "ĠisĠtheĠ": 6521,
  "inĠtheĠeuropeanĠunion": 6522,
  "critic": 6523,
  "share": 6524,
  "governmentalĠconferenceĠ": 6525,
  "might": 6526,
  "lateĠ": 6527,
  "sequences": 6528,
  "ĠthreeĠ": 6529,
  "Ġcountries.": 6530,
  "ĠrightsĠ": 6531,
  "committeeĠ": 6532,
  "Ġminor": 6533,
  "fundamentalĠright": 6534,
  "Ġeuropas": 6535,
  "eigne": 6536,
  "tĠhaben.": 6537,
  "Ġbeitrit": 6538,
  "vonĠderĠkommissionĠ": 6539,
  "artĠ": 6540,
  "ierungs": 6541,
  "undenĠ": 6542,
  "fördert": 6543,
  "tĠwird": 6544,
  "Ġgere": 6545,
  "nachdemĠ": 6546,
  "okument": 6547,
  "esĠgibtĠ": 6548,
  "kann,": 6549,
  "Ġsteuer": 6550,
  "versicher": 6551,
  "ĠweiterhinĠ": 6552,
  "Ġbemü": 6553,
  "ren.": 6554,
  "beu": 6555,
  "Ġzeit": 6556,
  "schle": 6557,
  "ktionen": 6558,
  "rĠundĠ": 6559,
  "ĠdaraufĠhinweis": 6560,
  "scho": 6561,
  "plement": 6562,
  "justizĠundĠinnere": 6563,
  "ungenĠdesĠ": 6564,
  "informations": 6565,
  "ĠĠdie": 6566,
  "scht": 6567,
  "erzeugni": 6568,
  "Ġprofes": 6569,
  "ĠinĠan": 6570,
  "Ġinnov": 6571,
  "ĠundĠverbraucher": 6572,
  "yper": 6573,
  "isen": 6574,
  "zeugnisseĠ": 6575,
  "inĠall": 6576,
  "ingsĠ": 6577,
  "rest": 6578,
  "Ġsuper": 6579,
  "ĠbestĠ": 6580,
  "migrant": 6581,
  "ct,Ġ": 6582,
  "available": 6583,
  "Ġposs": 6584,
  "ofĠtheĠeuropean": 6585,
  "decisions": 6586,
  "ersĠandĠ": 6587,
  "haveĠtoĠ": 6588,
  "Ġcongra": 6589,
  "Ġimpro": 6590,
  "ĠoneĠofĠtheĠ": 6591,
  "promiseĠ": 6592,
  "Ġdraw": 6593,
  "ĠwhichĠhas": 6594,
  "pleas": 6595,
  "respec": 6596,
  "tĠofĠa": 6597,
  "try": 6598,
  "ĠawareĠ": 6599,
  "asĠtoĠ": 6600,
  "dĠinĠthe": 6601,
  "ifĠtheĠ": 6602,
  "ĠcommissionerĠ": 6603,
  "ryĠoutĠ": 6604,
  "acceptĠ": 6605,
  "ĠintoĠtheĠ": 6606,
  "ĠmakingĠ": 6607,
  "Ġlanguage": 6608,
  "sĠundĠderĠ": 6609,
  "egĠ": 6610,
  "kraft": 6611,
  "Ġleit": 6612,
  "Ġlandwirtschaf": 6613,
  "sieĠsich": 6614,
  "imĠhinblickĠaufĠdieĠ": 6615,
  "ĠinĠbezugĠaufĠdieĠ": 6616,
  "Ġangenom": 6617,
  "stellungĠvon": 6618,
  "agrar": 6619,
  "ren,": 6620,
  "Ġleis": 6621,
  "affen": 6622,
  "deck": 6623,
  "einigenĠ": 6624,
  "iar": 6625,
  "t,ĠdenĠ": 6626,
  "Ġeindeu": 6627,
  "verhält": 6628,
  "wässer": 6629,
  "ĠmeinungĠnach": 6630,
  "meineĠdamenĠundĠher": 6631,
  "ĠauswirkungenĠ": 6632,
  "Ġgelegenheit": 6633,
  "können,": 6634,
  "ĠimĠzusammenhang": 6635,
  "nichtsĠ": 6636,
  "lĠvon": 6637,
  "ĠministerĠ": 6638,
  "Ġflug": 6639,
  "Ġtele": 6640,
  "intens": 6641,
  "tsche": 6642,
  "lig": 6643,
  "n,ĠdannĠ": 6644,
  "operations": 6645,
  "Ġbezieh": 6646,
  "shall": 6647,
  "umsi": 6648,
  "Ġstatus": 6649,
  "Ġalternative": 6650,
  "Ġlabour": 6651,
  "llingĠ": 6652,
  "power": 6653,
  "sessio": 6654,
  ",Ġincluding": 6655,
  "ĠinĠtheĠco": 6656,
  "onĠtheĠcom": 6657,
  "Ġtable": 6658,
  "Ġprovisions": 6659,
  "Ġcombat": 6660,
  "ĠdevelopmentĠand": 6661,
  "theĠcomp": 6662,
  ",ĠparticularlyĠ": 6663,
  "mittedĠ": 6664,
  "production": 6665,
  "ĠaspectsĠ": 6666,
  "declar": 6667,
  "ĠinĠwhich": 6668,
  "speak": 6669,
  ",ĠevenĠ": 6670,
  "europe.": 6671,
  "agreementsĠ": 6672,
  "Ġcultur": 6673,
  ",ĠespeciallyĠ": 6674,
  "moreover": 6675,
  "steadĠ": 6676,
  "towardsĠ": 6677,
  "cient": 6678,
  "concernedĠ": 6679,
  "theĠcourtĠof": 6680,
  "Ġbasic": 6681,
  "justiceĠandĠhomeĠ": 6682,
  "single": 6683,
  "strengthen": 6684,
  "technical": 6685,
  "ungĠdieses": 6686,
  "wasser": 6687,
  "cĠĠ(": 6688,
  "katastrop": 6689,
  "vereh": 6690,
  "vers": 6691,
  "fts": 6692,
  "Ġheraus": 6693,
  "Ġjeder": 6694,
  "greichĠ": 6695,
  "terinĠ": 6696,
  "teĠder": 6697,
  "Ġmaßnahme": 6698,
  "fortschritte": 6699,
  "überĠdas": 6700,
  "ĠihmĠ": 6701,
  "beihilfen": 6702,
  "istĠdieĠ": 6703,
  "seiteĠ": 6704,
  "beitritts": 6705,
  "weili": 6706,
  "ĠzukunftĠ": 6707,
  "Ġjedem": 6708,
  "verfahrens": 6709,
  "nachĠdem": 6710,
  "auchĠwennĠ": 6711,
  "umweltĠ": 6712,
  "Ġdiskussion": 6713,
  "Ġoblig": 6714,
  "Ġchina": 6715,
  "Ġbzw.": 6716,
  "Ġrus": 6717,
  "freiheitenĠund": 6718,
  "Ġfel": 6719,
  "nvoll": 6720,
  "ynami": 6721,
  "list": 6722,
  "sonder": 6723,
  "handlungs": 6724,
  "Ġtradition": 6725,
  "tini": 6726,
  "passe": 6727,
  "Ġdig": 6728,
  "Ġjun": 6729,
  "ĠeconomyĠ": 6730,
  "Ġ[": 6731,
  "ĠbalanceĠ": 6732,
  "Ġavailable": 6733,
  "any": 6734,
  "Ġrecommend": 6735,
  "ĠprojectsĠ": 6736,
  "ĠpointĠoutĠ": 6737,
  "heldĠ": 6738,
  "ĠmatterĠof": 6739,
  "sector": 6740,
  "ĠremindĠ": 6741,
  "few": 6742,
  "ĠinĠtheĠeuropeanĠunion": 6743,
  "ĠthatĠis": 6744,
  "Ġrepublic": 6745,
  "ĠactuallyĠ": 6746,
  "ĠinĠtermsĠof": 6747,
  "stic": 6748,
  "Ġstatement": 6749,
  "onĠtheĠotherĠhand,Ġ": 6750,
  "nowledge": 6751,
  "lishĠ": 6752,
  ",ĠalthoughĠ": 6753,
  "ĠcontinueĠto": 6754,
  "obvious": 6755,
  "satis": 6756,
  "Ġdamage": 6757,
  "mercial": 6758,
  "level": 6759,
  "noun": 6760,
  "Ġfishing": 6761,
  "Ġpeople'Ġs": 6762,
  "ation,Ġthe": 6763,
  "ĠofĠtheirĠ": 6764,
  "idĠdownĠ": 6765,
  "ĠfreedomsĠandĠ": 6766,
  "mrĠpresident": 6767,
  "Ġcho": 6768,
  "Ġelec": 6769,
  "prus": 6770,
  "acio": 6771,
  "selbstverständlich": 6772,
  "ĠvielĠ": 6773,
  "gangs": 6774,
  "ĠwenigerĠ": 6775,
  "ausĠdenĠ": 6776,
  "Ġbereit": 6777,
  "nachhal": 6778,
  "Ġzahl": 6779,
  "Ġdan": 6780,
  "nachĠderĠtagesordnungĠfolgtĠdieĠ": 6781,
  "ichĠbin": 6782,
  "n,Ġwährend": 6783,
  "wirtschaftĠundĠ": 6784,
  "(kom": 6785,
  "bewert": 6786,
  "ktive": 6787,
  "angemessen": 6788,
  "Ġzusätz": 6789,
  "zurĠverfügungĠ": 6790,
  "behörde": 6791,
  "esĠsichĠ": 6792,
  "imĠübrigenĠ": 6793,
  "Ġtour": 6794,
  "Ġinnerhalb": 6795,
  "west": 6796,
  "irm": 6797,
  "ĠregierungenĠ": 6798,
  "frü": 6799,
  "teilĠderĠ": 6800,
  "vollständ": 6801,
  "behandel": 6802,
  "kampfĠ": 6803,
  ",ĠdieĠwirĠ": 6804,
  "Ġinternationalen": 6805,
  "Ġmob": 6806,
  "Ġlat": 6807,
  "uelle": 6808,
  "sequ": 6809,
  "eren.": 6810,
  "beschluß": 6811,
  "berichte": 6812,
  "Ġmilitä": 6813,
  "natoĠ": 6814,
  "lif": 6815,
  "vene": 6816,
  "voting": 6817,
  "odsĠ": 6818,
  "ationĠfromĠ": 6819,
  "ĠdoneĠ": 6820,
  "llenge": 6821,
  "Ġrural": 6822,
  "committeeĠon": 6823,
  "centralĠ": 6824,
  "ĠinvolvedĠ": 6825,
  "Ġpurpose": 6826,
  "anced": 6827,
  "cong": 6828,
  "Ġremain": 6829,
  "sectorĠ": 6830,
  "emphasi": 6831,
  "cts,Ġ": 6832,
  "ctionsĠ": 6833,
  "Ġcommission,": 6834,
  "bodyĠ": 6835,
  "Ġcouncil": 6836,
  "concerning": 6837,
  "ĠmemberĠstates.": 6838,
  "dishĠ": 6839,
  "scient": 6840,
  "andĠthat": 6841,
  "Ġinde": 6842,
  "discri": 6843,
  ",Ġi.e.": 6844,
  "ĠusedĠ": 6845,
  "ĠfullyĠ": 6846,
  "Ġfinal": 6847,
  "assess": 6848,
  "ĠviewĠofĠtheĠ": 6849,
  ",Ġzu": 6850,
  "prodi": 6851,
  "ĠprogrammĠ": 6852,
  "wirĠsind": 6853,
  "Ġgaran": 6854,
  "gering": 6855,
  "erin": 6856,
  "Ġanderer": 6857,
  "ĠĠund": 6858,
  "n,ĠumĠdieĠ": 6859,
  "red": 6860,
  "erheb": 6861,
  "Ġeffizie": 6862,
  "wiesen": 6863,
  "zumĠbeispielĠ": 6864,
  "Ġdokument": 6865,
  "ĠimĠnamenĠderĠ": 6866,
  "nächsten": 6867,
  "republik": 6868,
  "gerichts": 6869,
  "ose": 6870,
  "beschäftigungĠ": 6871,
  "ĠdortĠ": 6872,
  "Ġeinzu": 6873,
  "tigen.": 6874,
  "Ġam": 6875,
  "Ġregierungskonferenz": 6876,
  "cht,Ġ": 6877,
  "ationĠderĠ": 6878,
  "Ġzentra": 6879,
  "ĠprivateĠ": 6880,
  "leb": 6881,
  "Ġhat,Ġ": 6882,
  ",Ġwel": 6883,
  "Ġentscheide": 6884,
  "status": 6885,
  "prozessesĠ": 6886,
  "achtungĠderĠ": 6887,
  "Ġproz": 6888,
  "ĠmitĠeiner": 6889,
  "ĠdieĠeuropäischeĠunionĠ": 6890,
  "mitteilungĠderĠkommissionĠ": 6891,
  "habit": 6892,
  "rele": 6893,
  "bren": 6894,
  "Ġseek": 6895,
  "fterĠ": 6896,
  "it.": 6897,
  "Ġaf": 6898,
  "ĠhumanĠrightsĠ": 6899,
  "theĠmost": 6900,
  "Ġsuggest": 6901,
  "ĠsafetyĠ": 6902,
  "ingĠfor": 6903,
  "Ġrequirement": 6904,
  "reallyĠ": 6905,
  "concernĠ": 6906,
  "clude": 6907,
  "inĠtheĠf": 6908,
  "Ġequ": 6909,
  "ility,Ġ": 6910,
  "happen": 6911,
  "umsized": 6912,
  "stateĠ": 6913,
  "inĠaddition": 6914,
  "wishĠto": 6915,
  "intoĠthe": 6916,
  "ĠsuchĠa": 6917,
  "establishe": 6918,
  "logical": 6919,
  "Ġoffer": 6920,
  "ĠweĠmustĠ": 6921,
  "ofĠ": 6922,
  "Ġextend": 6923,
  "theĠconc": 6924,
  "onĠtheĠenvironment,Ġ": 6925,
  "Ġwaste": 6926,
  "fertig": 6927,
  "tages": 6928,
  "entsprechendenĠ": 6929,
  "Ġlini": 6930,
  "inĠdiesemĠzusammenhang": 6931,
  "inge": 6932,
  "einigerĠ": 6933,
  "Ġarbeitsplätz": 6934,
  "problem": 6935,
  "ĠvielleichtĠ": 6936,
  "partnerĠ": 6937,
  "gebietĠ": 6938,
  "ung,ĠderĠ": 6939,
  "ĠebensoĠ": 6940,
  "Ġkomme": 6941,
  "schaftenĠ": 6942,
  "dasĠist": 6943,
  "nĠundĠdenĠ": 6944,
  "öffentlicheĠ": 6945,
  "t,Ġda": 6946,
  "sho": 6947,
  "Ġwichtige": 6948,
  "aufĠderĠgrundlage": 6949,
  "cla": 6950,
  "ĠumĠeine": 6951,
  "dlichen": 6952,
  "hy": 6953,
  "r)": 6954,
  "arbeitnehmerĠ": 6955,
  "systemsĠ": 6956,
  "fr": 6957,
  "var": 6958,
  "rößer": 6959,
  "ähn": 6960,
  "Ġdring": 6961,
  "andĠin": 6962,
  "Ġumwel": 6963,
  "Ġmenschenrechte": 6964,
  "absich": 6965,
  "eindeu": 6966,
  "hnĠ": 6967,
  "Ġlös": 6968,
  "ämtlicheĠ": 6969,
  "port": 6970,
  "wand": 6971,
  "ournal": 6972,
  "standardsĠ": 6973,
  "Ġhu": 6974,
  "Ġadministrative": 6975,
  "ĠgoĠ": 6976,
  "portedĠ": 6977,
  "green": 6978,
  "animous": 6979,
  "iĠcan": 6980,
  "cost": 6981,
  "cellent": 6982,
  "ĠeconomicĠandĠsocial": 6983,
  "ĠasĠwell": 6984,
  "inĠrel": 6985,
  "ĠtheĠfirst": 6986,
  "afeguar": 6987,
  "meansĠof": 6988,
  "opinion,": 6989,
  "createĠ": 6990,
  "Ġover": 6991,
  "extend": 6992,
  "againstĠthe": 6993,
  "ĠitĠwas": 6994,
  "legislationĠ": 6995,
  "ĠtakingĠ": 6996,
  ",ĠweĠmustĠ": 6997,
  "preciselyĠ": 6998,
  "agingĠ": 6999,
  "welcome": 7000,
  "sbour": 7001,
  "not,Ġ": 7002,
  "publicĠhealthĠandĠconsumerĠ": 7003,
  "hicle": 7004,
  "Ġrefuge": 7005,
  "rede": 7006,
  "ĠdeĠ": 7007,
  "ĠnachĠder": 7008,
  "spezif": 7009,
  "wohl": 7010,
  "gunsten": 7011,
  "Ġsprechen": 7012,
  "brauchen": 7013,
  "sprochen": 7014,
  "derĠeuropäischen": 7015,
  "ĠaufĠeine": 7016,
  "tzus": 7017,
  "barkeitĠ": 7018,
  "enĠer": 7019,
  "nichtĠzu": 7020,
  ",ĠindemĠ": 7021,
  "überwach": 7022,
  "volks": 7023,
  "wirksame": 7024,
  "ärenz": 7025,
  "ändeĠ": 7026,
  "ĠkontrolleĠ": 7027,
  "verwaltungĠ": 7028,
  "ĠundĠdem": 7029,
  "interesseĠ": 7030,
  "ds": 7031,
  "wirĠwerdenĠ": 7032,
  "hü": 7033,
  "trage": 7034,
  "voraussetz": 7035,
  "etsĠ": 7036,
  "Ġerheb": 7037,
  "uner": 7038,
  "nationenĠ": 7039,
  "Ġmüssen,Ġ": 7040,
  "schich": 7041,
  "ĠmüssenĠwirĠ": 7042,
  "Ġerfol": 7043,
  "dor": 7044,
  "ĠforceĠ": 7045,
  "zeug": 7046,
  "lifeĠ": 7047,
  "solan": 7048,
  "ork": 7049,
  "lies": 7050,
  "Ġname": 7051,
  "iner": 7052,
  "Ġfeira": 7053,
  "lik": 7054,
  "Ġadministration": 7055,
  "ĠnatureĠ": 7056,
  "amine": 7057,
  "veĠthe": 7058,
  "theĠcommon": 7059,
  "mrĠpresident,Ġcommissioner,Ġ": 7060,
  "Ġproduction": 7061,
  "entur": 7062,
  "sustainable": 7063,
  ",ĠiĠwouldĠlikeĠto": 7064,
  ",Ġthis": 7065,
  "andĠmediumsized": 7066,
  "Ġbodies": 7067,
  "ĠpossibleĠtoĠ": 7068,
  "Ġcontex": 7069,
  "ledĠ": 7070,
  "e,ĠtheĠ": 7071,
  "didateĠcountries": 7072,
  "whoĠareĠ": 7073,
  "Ġexperie": 7074,
  "Ġstage": 7075,
  "voc": 7076,
  "duringĠ": 7077,
  "onĠtheĠenvironment,ĠpublicĠhealthĠandĠconsumerĠ": 7078,
  "vielenĠ": 7079,
  "tag": 7080,
  "mehrheit": 7081,
  "Ġvereinbar": 7082,
  "Ġhoff": 7083,
  "fremden": 7084,
  "förderungĠ": 7085,
  "hrenĠ": 7086,
  "realis": 7087,
  "derĠmitgliedstaaten": 7088,
  "ĠĠinĠ": 7089,
  "tĠist.": 7090,
  "Ġbetra": 7091,
  "ist,ĠdieĠ": 7092,
  "herrĠpräsident,ĠherrĠkommissar": 7093,
  "ĠsowieĠdieĠ": 7094,
  "entwicklungĠundĠ": 7095,
  "bisherĠ": 7096,
  "fahrungenĠ": 7097,
  "transparenz": 7098,
  "entscheide": 7099,
  "ĠzwischenĠderĠ": 7100,
  "t,ĠumĠ": 7101,
  "gelegenheit": 7102,
  ",ĠwoĠ": 7103,
  "sternĠ": 7104,
  "Ġsy": 7105,
  ",ĠdaßĠdas": 7106,
  "kt": 7107,
  "stehenden": 7108,
  "marktĠ": 7109,
  "henĠundĠ": 7110,
  "Ġäußerst": 7111,
  "somit": 7112,
  "ĠimĠbereichĠderĠ": 7113,
  "Ġverbind": 7114,
  ",ĠdaßĠdiese": 7115,
  "ök": 7116,
  "Ġtechnolog": 7117,
  "stim": 7118,
  "ĠesĠistĠ": 7119,
  "enĠsta": 7120,
  "enĠundĠder": 7121,
  "dortĠ": 7122,
  "ĠinformationenĠ": 7123,
  "Ġgrundle": 7124,
  "t,ĠwennĠ": 7125,
  "kommen,": 7126,
  "freiheitenĠundĠrechteĠder": 7127,
  "rta": 7128,
  "toberĠ": 7129,
  "ammenĠ": 7130,
  "kennt": 7131,
  "gover": 7132,
  "ichi": 7133,
  "einsetz": 7134,
  "gebrachtĠ": 7135,
  "ea": 7136,
  "nomen": 7137,
  "goslawi": 7138,
  "zoneĠ": 7139,
  "alternative": 7140,
  "lusionĠ": 7141,
  "eĠis": 7142,
  "simi": 7143,
  "tĠa": 7144,
  "ĠmillionĠ": 7145,
  "mussĠ": 7146,
  "ĠoftenĠ": 7147,
  "efulĠ": 7148,
  "onĠtheĠbasis": 7149,
  "ĠmakeĠit": 7150,
  "Ġresponse": 7151,
  "sĠbyĠ": 7152,
  "Ġregulations": 7153,
  "Ġtechnical": 7154,
  "basic": 7155,
  "useĠof": 7156,
  "wedĠ": 7157,
  "agricultural": 7158,
  "ĠkeyĠ": 7159,
  "Ġindic": 7160,
  "regardingĠthe": 7161,
  "y,ĠtheĠ": 7162,
  "ingĠofĠthe": 7163,
  "show": 7164,
  "Ġlight": 7165,
  "ĠprotectionĠofĠ": 7166,
  "ĠestablishĠ": 7167,
  "fishing": 7168,
  "xenop": 7169,
  "opho": 7170,
  "Ġcurre": 7171,
  "Ġimmigration": 7172,
  "draftĠ": 7173,
  "ĠtheĠcountries": 7174,
  "annual": 7175,
  "ĠthenĠ": 7176,
  "militaryĠ": 7177,
  "leiderĠ": 7178,
  "gibtĠes": 7179,
  "geschlossen": 7180,
  "daßĠwirĠ": 7181,
  "cĠĠ(co": 7182,
  "hohenĠ": 7183,
  "glückwünschen": 7184,
  "ist,ĠundĠ": 7185,
  "abschluß": 7186,
  "äsion": 7187,
  "namenĠ": 7188,
  "ĠgesellschaftĠ": 7189,
  "Ġnachhal": 7190,
  "habeĠich": 7191,
  "ĠebenfallsĠ": 7192,
  "nkreichĠ": 7193,
  "Ġabsatz": 7194,
  "konnt": 7195,
  "Ġforsch": 7196,
  "n,ĠdieĠsichĠ": 7197,
  "griffĠ": 7198,
  "gil": 7199,
  "Ġgestal": 7200,
  "ĠzuĠdem": 7201,
  "gendes": 7202,
  "vonĠuns": 7203,
  "erweiterungĠ": 7204,
  "zeitigenĠ": 7205,
  "ĠesĠsich": 7206,
  "ĠdarfĠ": 7207,
  "mittelbar": 7208,
  "agenda": 7209,
  "gemeinschaftlichen": 7210,
  "kü": 7211,
  "Ġeigentlich": 7212,
  "gutĠ": 7213,
  "tse": 7214,
  "Ġkünf": 7215,
  "völligĠ": 7216,
  "nicht": 7217,
  "Ġke": 7218,
  "und,Ġ": 7219,
  "Ġvorgeleg": 7220,
  "four": 7221,
  "stensĠ": 7222,
  "Ġbürger,Ġ": 7223,
  "pas": 7224,
  "ogie": 7225,
  "österreichi": 7226,
  "reichend": 7227,
  "umweltfragen,": 7228,
  "fragen,Ġvolksgesundheit": 7229,
  "ĠvolksgesundheitĠundĠverbraucher": 7230,
  "abwe": 7231,
  "ĠnatoĠ": 7232,
  "attent": 7233,
  "Ġfour": 7234,
  "gh": 7235,
  "ralĠ": 7236,
  "thatĠweĠcan": 7237,
  "ĠperiodĠ": 7238,
  "ĠrequestĠ": 7239,
  "givenĠtheĠ": 7240,
  ",Ġon": 7241,
  "ourselve": 7242,
  "Ġguideline": 7243,
  "Ġsucces": 7244,
  "certainlyĠ": 7245,
  "thatĠthese": 7246,
  "Ġeas": 7247,
  "ĠofĠtheĠcommissio": 7248,
  "together": 7249,
  "seĠthe": 7250,
  ",ĠareĠ": 7251,
  "cessive": 7252,
  "xenopho": 7253,
  "umweltfragen,ĠvolksgesundheitĠundĠverbraucher": 7254,
  "untilĠ": 7255,
  "t,ĠandĠ": 7256,
  "suchĠa": 7257,
  "ĠwhatĠis": 7258,
  "enable": 7259,
  "Ġdeter": 7260,
  "Ġamoun": 7261,
  "Ġdata": 7262,
  "itĠwill": 7263,
  "thereĠisĠnoĠ": 7264,
  "ĠreferenceĠ": 7265,
  "hbour": 7266,
  "responsibilityĠ": 7267,
  "cop": 7268,
  "become": 7269,
  "try.": 7270,
  "ĠyearsĠ": 7271,
  "ĠinĠour": 7272,
  "youngĠ": 7273,
  "ĠgesamtenĠ": 7274,
  "kandid": 7275,
  "gangenheit": 7276,
  "wollen,Ġ": 7277,
  "ttens": 7278,
  "Ġbeitritts": 7279,
  "inĠbezugĠaufĠdieĠ": 7280,
  "achtungĠ": 7281,
  "vierĠ": 7282,
  "promiß": 7283,
  "tsi": 7284,
  "nieder": 7285,
  "esĠgeht": 7286,
  "Ġvorschläge": 7287,
  "alsĠdieĠ": 7288,
  "weitereĠ": 7289,
  "nive": 7290,
  "wirtschaftlichenĠund": 7291,
  "ĠdesĠvertra": 7292,
  "Ġvorbereit": 7293,
  "tĠeine": 7294,
  "bedingtĠ": 7295,
  "ĠwiederĠ": 7296,
  "staatlichen": 7297,
  "könnteĠ": 7298,
  "weiligenĠ": 7299,
  "zuĠdem": 7300,
  "fundenĠ": 7301,
  ",ĠeinĠ": 7302,
  "treff": 7303,
  "gehört": 7304,
  "europäischerĠebene": 7305,
  "Ġsicht": 7306,
  "durchĠden": 7307,
  "suchtĠ": 7308,
  "ĠhabenĠwirĠ": 7309,
  "verschmutz": 7310,
  "itive": 7311,
  "ĠsicherĠ": 7312,
  "genu": 7313,
  "christ": 7314,
  "iumĠ": 7315,
  "inf": 7316,
  "Ġig": 7317,
  "Ġbestimmte": 7318,
  "Ġmitglieder": 7319,
  "ĠlebenĠ": 7320,
  "verwaltungs": 7321,
  "enĠaus": 7322,
  "vereintenĠ": 7323,
  "dier": 7324,
  "union,": 7325,
  "anstreng": 7326,
  "ordentlich": 7327,
  "stabilitä": 7328,
  "umentsĠ": 7329,
  "Ġmanage": 7330,
  "Ġresol": 7331,
  "nosĠ": 7332,
  "sĠwill": 7333,
  "ĠmussĠ": 7334,
  "ĠfundĠ": 7335,
  "ĠnextĠ": 7336,
  "Ġrepresen": 7337,
  "itherĠ": 7338,
  "levelĠof": 7339,
  "thatĠweĠhave": 7340,
  "Ġcir": 7341,
  "matic": 7342,
  "timesĠ": 7343,
  "thus": 7344,
  "ingĠup": 7345,
  "efficient": 7346,
  "jointĠ": 7347,
  "ĠandĠeconomic": 7348,
  "Ġagain": 7349,
  "ĠandĠfor": 7350,
  "ĠareĠnotĠ": 7351,
  "Ġage": 7352,
  "ormous": 7353,
  "cyĠandĠ": 7354,
  "Ġsingle": 7355,
  "propose": 7356,
  "i.e.": 7357,
  "ĠgreatĠdeal": 7358,
  "Ġreques": 7359,
  "ĠaimĠ": 7360,
  "Ġnuclear": 7361,
  "ĠpowerĠ": 7362,
  "stabilityĠ": 7363,
  "ĠrecentĠ": 7364,
  "sĠandĠto": 7365,
  "aĠfew": 7366,
  "sĠofĠtheĠeuropeanĠunion": 7367,
  "Ġcitizens'ĠfreedomsĠandĠ": 7368,
  "rights,ĠjusticeĠandĠhomeĠ": 7369,
  "ota": 7370,
  "expressedĠ": 7371,
  "ĠsecurityĠandĠdefenceĠ": 7372,
  "language": 7373,
  "ugosla": 7374,
  "ocheĠ": 7375,
  "ĠeuropäischenĠparlament": 7376,
  "Ġgefähr": 7377,
  "leich": 7378,
  "Ġkönnt": 7379,
  "Ġeinfach": 7380,
  "tss": 7381,
  "abschließendĠmöchteĠich": 7382,
  "Ġphase": 7383,
  "Ġziel": 7384,
  "ĠwichtigenĠ": 7385,
  "Ġgehört": 7386,
  "ĠnovemberĠ": 7387,
  "Ġwird": 7388,
  "Ġhätte": 7389,
  "abstimmungĠ": 7390,
  "gerichtshof": 7391,
  "Ġvorzu": 7392,
  "regierungenĠ": 7393,
  "Ġmiß": 7394,
  "Ġfestgeleg": 7395,
  "sen,": 7396,
  "Ġkommissions": 7397,
  "derzeitĠ": 7398,
  "zweitensĠ": 7399,
  "Ġgrupp": 7400,
  "ausfüh": 7401,
  "Ġfinanziellen": 7402,
  "sowieĠderĠ": 7403,
  "Ġempfeh": 7404,
  "ĠnichtĠver": 7405,
  "the": 7406,
  "haushaltĠ": 7407,
  "vorgesehe": 7408,
  "gegebe": 7409,
  "s,Ġwe": 7410,
  "landesĠ": 7411,
  "ökolog": 7412,
  "Ġmensch": 7413,
  "mater": 7414,
  "exper": 7415,
  "Ġwissenschaf": 7416,
  "Ġwäh": 7417,
  "hungenĠ": 7418,
  "Ġvölk": 7419,
  "ĠweltĠ": 7420,
  "denf": 7421,
  "übertra": 7422,
  "lös": 7423,
  "atsĠ": 7424,
  "Ġfis": 7425,
  "Ġminder": 7426,
  "ĠaufĠdas": 7427,
  "demokratische": 7428,
  "teidig": 7429,
  "istische": 7430,
  "herz": 7431,
  "ath": 7432,
  "Ġshe": 7433,
  "integra": 7434,
  "agraphĠ": 7435,
  "endent": 7436,
  "Ġbur": 7437,
  "n,ĠdassĠdieĠ": 7438,
  "rica": 7439,
  "ĠitĠhasĠ": 7440,
  ",Ġhowever,Ġ": 7441,
  "afterĠtheĠ": 7442,
  "iseĠtheĠ": 7443,
  "Ġreduction": 7444,
  "asĠanĠ": 7445,
  "ĠcongratulateĠ": 7446,
  "ĠnoĠlongerĠ": 7447,
  "indic": 7448,
  "illar": 7449,
  "maintain": 7450,
  "memberĠ": 7451,
  "tific": 7452,
  "Ġfunding": 7453,
  "thatĠthereĠisĠ": 7454,
  "ĠpriorityĠ": 7455,
  "opportunityĠto": 7456,
  "orĠthe": 7457,
  "ibilityĠof": 7458,
  "goingĠ": 7459,
  "searchĠand": 7460,
  "Ġaccession": 7461,
  "ĠcourtĠof": 7462,
  "lican": 7463,
  "Ġrelev": 7464,
  "Ġvicti": 7465,
  "atedĠtoĠ": 7466,
  "Ġexpendi": 7467,
  "Ġdeclar": 7468,
  "ĠofĠallĠ": 7469,
  "inĠother": 7470,
  "Ġprevious": 7471,
  "cup": 7472,
  "Ġcouncil,Ġ": 7473,
  "dĠthat": 7474,
  "forces": 7475,
  "research": 7476,
  "Ġprüf": 7477,
  "Ġprodi": 7478,
  "hinsichtlich": 7479,
  "zöge": 7480,
  "verkehrĠundĠ": 7481,
  "gleichheit": 7482,
  "wieĠsieĠ": 7483,
  "gäng": 7484,
  "ichĠhalte": 7485,
  "allesĠ": 7486,
  "technische": 7487,
  "berichtĠ(a)ĠvonĠfrau": 7488,
  "n,ĠwoĠ": 7489,
  "Ġschluß": 7490,
  "projekte": 7491,
  "förder": 7492,
  "veränder": 7493,
  "endlich": 7494,
  "Ġble": 7495,
  "einig": 7496,
  "Ġsagen,Ġdaß": 7497,
  "läu": 7498,
  "moderni": 7499,
  "entscheidungenĠ": 7500,
  "schaffen": 7501,
  "monop": 7502,
  "meinerĠmeinungĠnach": 7503,
  "Ġweiß": 7504,
  "erweiter": 7505,
  "hen,Ġdie": 7506,
  "Ġzustimm": 7507,
  "schrittĠ": 7508,
  "durchgeführt": 7509,
  "befugni": 7510,
  "fr)": 7511,
  "en,ĠwennĠ": 7512,
  "tief": 7513,
  "Ġexper": 7514,
  "Ġschwe": 7515,
  "bestand": 7516,
  "et.": 7517,
  "len,": 7518,
  "Ġnehme": 7519,
  "Ġantwor": 7520,
  "statt": 7521,
  "ĠdesĠausschussesĠ": 7522,
  "ästin": 7523,
  "abkommens": 7524,
  "ĠdesĠrates": 7525,
  "Ġannahme": 7526,
  "werteĠ": 7527,
  "ĠnationenĠ": 7528,
  "front": 7529,
  "Ġcour": 7530,
  "Ġerweiter": 7531,
  "territori": 7532,
  "Ġintegra": 7533,
  "ĠwieĠvor": 7534,
  "ĠberichterstatterĠ": 7535,
  "Ġdon": 7536,
  "ehrsĠ": 7537,
  "ity": 7538,
  "atom": 7539,
  "eles": 7540,
  "ies,Ġ": 7541,
  "Ġ()": 7542,
  ",ĠiĠwouldĠ": 7543,
  "thatĠisĠwhyĠ": 7544,
  "Ġopin": 7545,
  "ĠeuropeanĠparliamentĠandĠcouncilĠdirective": 7546,
  "ingĠthis": 7547,
  "todayĠ": 7548,
  "futur": 7549,
  "idea": 7550,
  "Ġpoor": 7551,
  "itĠisĠa": 7552,
  "ĠinĠparticular": 7553,
  "arilyĠ": 7554,
  "Ġpovert": 7555,
  "factĠthat": 7556,
  "ĠonĠbe": 7557,
  "toĠtakeĠ": 7558,
  "theĠneedĠtoĠ": 7559,
  "ĠtheĠfactĠthat": 7560,
  "contribution": 7561,
  "commun": 7562,
  "dle": 7563,
  "bilities": 7564,
  "else": 7565,
  "vinced": 7566,
  "apon": 7567,
  "does": 7568,
  "lyĠas": 7569,
  "ationĠinĠthe": 7570,
  "counci": 7571,
  "values": 7572,
  "partyĠ": 7573,
  "don": 7574,
  "fürĠalle": 7575,
  "enĠsowieĠ": 7576,
  "stellungĠderĠ": 7577,
  "atastrop": 7578,
  "agenĠ": 7579,
  "frauĠkommissar": 7580,
  "berichterstatterĠ": 7581,
  "leun": 7582,
  "ähr": 7583,
  "dafür": 7584,
  "allgemeinen": 7585,
  "ĠausschußĠfürĠ": 7586,
  "nachĠder": 7587,
  "meinungĠnach": 7588,
  "nahmenĠ": 7589,
  "dop": 7590,
  "Ġerreicht": 7591,
  "ĠnotwendigkeitĠ": 7592,
  "rechtlichen": 7593,
  "kap": 7594,
  "Ġmoderni": 7595,
  "lbank": 7596,
  "ĠverfahrenĠ": 7597,
  "Ġaufgabe": 7598,
  "ĠimĠhinblickĠaufĠdieĠ": 7599,
  "straf": 7600,
  "Ġüberwach": 7601,
  "wenigĠ": 7602,
  "ĠmitĠeinem": 7603,
  "entwicklungĠderĠ": 7604,
  "Ġglaube": 7605,
  "ĠvonĠuns": 7606,
  "ärz": 7607,
  "Ġeinheit": 7608,
  "justizĠundĠinnereĠangelegenheit": 7609,
  "denfeind": 7610,
  "staats": 7611,
  "erforderlichen": 7612,
  "interi": 7613,
  "Ġhelsinki": 7614,
  "ĠendeĠ": 7615,
  ",ĠmitĠ": 7616,
  "Ġfestleg": 7617,
  "grundsatz": 7618,
  "rig": 7619,
  "keinenĠ": 7620,
  "portion": 7621,
  "fas": 7622,
  "Ġagenda": 7623,
  "Ġstri": 7624,
  "Ġstabili": 7625,
  "hauptĠ": 7626,
  "Ġort": 7627,
  "task": 7628,
  "tein": 7629,
  "ans": 7630,
  "o.": 7631,
  "Ġregime": 7632,
  "Ġmess": 7633,
  "Ġevalu": 7634,
  "prehensive": 7635,
  "Ġmu": 7636,
  "aĠp": 7637,
  "Ġbilateral": 7638,
  "Ġyork": 7639,
  "verkehrsĠ": 7640,
  "ad,Ġ": 7641,
  "Ġindependent": 7642,
  "parties": 7643,
  "borderĠ": 7644,
  "Ġshow": 7645,
  "peaceĠ": 7646,
  "difficultĠ": 7647,
  "ĠaccordanceĠ": 7648,
  "ĠsinceĠ": 7649,
  "holdĠ": 7650,
  "ĠforĠthisĠ": 7651,
  "iĠthereforeĠ": 7652,
  "theĠcommissionĠandĠ": 7653,
  "provisions": 7654,
  "ĠcouldĠbe": 7655,
  "draw": 7656,
  "Ġunemp": 7657,
  "ĠtheĠcommission,": 7658,
  "inĠanyĠ": 7659,
  "ĠdevelopmentĠofĠ": 7660,
  "hilst": 7661,
  "tooĠ": 7662,
  "ĠbutĠalsoĠ": 7663,
  "dĠtoĠbeĠ": 7664,
  "caseĠ": 7665,
  "budgetaryĠ": 7666,
  "procedureĠ": 7667,
  "ĠquestionĠofĠ": 7668,
  "Ġentire": 7669,
  "ĠifĠwe": 7670,
  "isĠthatĠ": 7671,
  "Ġcitizens'ĠfreedomsĠandĠrights,ĠjusticeĠandĠhomeĠ": 7672,
  "ĠmembersĠofĠthe": 7673,
  "Ġperspective": 7674,
  "secre": 7675,
  "amendmentĠnoĠ": 7676,
  "sprüng": 7677,
  ",ĠsondernĠauch": 7678,
  "empfehlungĠ": 7679,
  "ĠüberĠdas": 7680,
  "normenĠ": 7681,
  "ĠnichtĠmehrĠ": 7682,
  "lokal": 7683,
  "Ġkosten": 7684,
  "berichtsĠ": 7685,
  "Ġalles": 7686,
  "wirtschaftlicheĠ": 7687,
  "tetenĠ": 7688,
  "Ġlas": 7689,
  "dürfen": 7690,
  "schni": 7691,
  ",ĠundĠzwar": 7692,
  "deta": 7693,
  "mäßige": 7694,
  "digungĠ": 7695,
  "Ġübera": 7696,
  "angel": 7697,
  "gemeinsamĠ": 7698,
  "stö": 7699,
  "Ġdienst": 7700,
  "ĠkindĠ": 7701,
  ",Ġd.Ġh.": 7702,
  "Ġgegens": 7703,
  "etwa": 7704,
  "ĠnichtĠzu": 7705,
  "bestimmtenĠ": 7706,
  "kürz": 7707,
  "n,ĠdaßĠder": 7708,
  "darüberĠhinausĠ": 7709,
  "tenĠzu": 7710,
  "Ġmittle": 7711,
  "entscheidungs": 7712,
  "site": 7713,
  "touris": 7714,
  "gesetzgeb": 7715,
  "digĠ": 7716,
  "bereich": 7717,
  "hn": 7718,
  "wege": 7719,
  "austau": 7720,
  "Ġfinde": 7721,
  "ebenfallsĠ": 7722,
  "ĠistĠdie": 7723,
  "ĠderĠgrundrechte": 7724,
  "Ġgipfel": 7725,
  "annahme": 7726,
  "ßenĠund": 7727,
  "zügigkeitĠ": 7728,
  "wanderungĠ": 7729,
  "Ġlissabon": 7730,
  "substan": 7731,
  "Ġkönnen,": 7732,
  "Ġangem": 7733,
  "aufzu": 7734,
  "ĠgrundĠ": 7735,
  "eco": 7736,
  "kar": 7737,
  "menenĠ": 7738,
  "verteidig": 7739,
  "Ġgewal": 7740,
  "schutzes": 7741,
  "ission": 7742,
  "ruption": 7743,
  "eck": 7744,
  "profit": 7745,
  "Ġpay": 7746,
  "ot": 7747,
  "Ġform": 7748,
  "okol": 7749,
  "Ġunt": 7750,
  "ij": 7751,
  "Ġeco": 7752,
  "purpose": 7753,
  "Ġsense": 7754,
  "ĠpopulationĠ": 7755,
  "nuclear": 7756,
  "ctĠtheĠ": 7757,
  "ĠexpressedĠ": 7758,
  "ĠregionalĠpolicy,Ġ": 7759,
  "theĠrapporteur": 7760,
  "suggest": 7761,
  "ofĠtrans": 7762,
  "(a)ĠbyĠmrsĠ": 7763,
  "dsĠof": 7764,
  "Ġshare": 7765,
  "Ġchallenge": 7766,
  "ĠtoĠensureĠ": 7767,
  "ĠcomeĠ": 7768,
  "Ġattemp": 7769,
  "ĠgenuineĠ": 7770,
  "ufac": 7771,
  "scri": 7772,
  "ĠopportunityĠto": 7773,
  "tedlyĠ": 7774,
  "ĠtoĠensureĠthat": 7775,
  "ĠcarriedĠoutĠ": 7776,
  "rejec": 7777,
  "throughĠtheĠ": 7778,
  "Ġcompar": 7779,
  "ingĠwith": 7780,
  "cove": 7781,
  "Ġknowledge": 7782,
  "esĠofĠtheĠ": 7783,
  "avourĠofĠtheĠ": 7784,
  "itĠcom": 7785,
  "memberĠstat": 7786,
  "ĠweĠcan": 7787,
  "industryĠ": 7788,
  "scientific": 7789,
  "ĠthirdĠcountries": 7790,
  "foreignĠ": 7791,
  "becauseĠofĠtheĠ": 7792,
  "edĠcrime": 7793,
  "Ġprocedures": 7794,
  "condem": 7795,
  "Ġeurope.": 7796,
  "Ġencourage": 7797,
  "suffer": 7798,
  "tsame": 7799,
  "lüsseĠ": 7800,
  "ptemberĠ": 7801,
  "Ġkonferenz": 7802,
  "rin": 7803,
  "ĠauchĠder": 7804,
  "beauf": 7805,
  "richtlini": 7806,
  "baldĠ": 7807,
  "enĠundĠden": 7808,
  "ĠgibtĠes": 7809,
  "ungenĠfürĠdieĠ": 7810,
  "Ġanstre": 7811,
  "nĠunsĠ": 7812,
  "rechtsvorschriftenĠ": 7813,
  "verehrteĠ": 7814,
  "schrif": 7815,
  "Ġst": 7816,
  "ländlicheĠ": 7817,
  "köni": 7818,
  "hobenĠ": 7819,
  "phase": 7820,
  "nen.": 7821,
  "führungĠvon": 7822,
  "usw.": 7823,
  "Ġvorsitz": 7824,
  "sönlich": 7825,
  "Ġstark": 7826,
  "nĠundĠderĠ": 7827,
  "ungssystem": 7828,
  "ĠmeinesĠerachtens": 7829,
  "Ġstatt": 7830,
  "feldĠ": 7831,
  "zumĠausdruckĠbring": 7832,
  "gehenĠ": 7833,
  "eau": 7834,
  "lareĠ": 7835,
  "zurĠänderungĠderĠ": 7836,
  "bestimmterĠ": 7837,
  "pt)": 7838,
  "einmal": 7839,
  "orient": 7840,
  ",ĠundĠichĠ": 7841,
  "einsatz": 7842,
  "sischeĠpräsidentschaftĠ": 7843,
  "vonĠfrau": 7844,
  "test": 7845,
  "Ġanzu": 7846,
  "ĠgebietĠ": 7847,
  "Ġbank": 7848,
  "dac": 7849,
  "wirdĠundĠ": 7850,
  "Ġkürz": 7851,
  "desĠeuropäischenĠparlamentsĠ": 7852,
  "ologie": 7853,
  "lent": 7854,
  "einzi": 7855,
  "en,Ġwas": 7856,
  "ĠnichtsĠ": 7857,
  "ĠwirĠunsĠ": 7858,
  "tĠwerden,Ġdie": 7859,
  "umweltfragen,ĠvolksgesundheitĠundĠverbraucherpolitik": 7860,
  "stock": 7861,
  "fie": 7862,
  "privateĠ": 7863,
  "ĠinterventionĠ": 7864,
  "ĠminimumĠ": 7865,
  "prilĠ": 7866,
  "o,Ġ": 7867,
  "terrori": 7868,
  "gla": 7869,
  "tach": 7870,
  "coho": 7871,
  "Ġrefle": 7872,
  "ry,Ġ": 7873,
  "ned.": 7874,
  "n'sĠ": 7875,
  "matter": 7876,
  "third": 7877,
  "ryingĠ": 7878,
  "cessaryĠ": 7879,
  "justif": 7880,
  "Ġinclude": 7881,
  "indeed": 7882,
  "asĠaĠwhole": 7883,
  "cir": 7884,
  "ulated": 7885,
  "Ġestablishing": 7886,
  "itĠwouldĠbe": 7887,
  "ableĠofĠ": 7888,
  "deman": 7889,
  "sĠthatĠthe": 7890,
  "ionmakingĠ": 7891,
  "ĠensureĠthatĠthe": 7892,
  "fec": 7893,
  "atingĠtheĠ": 7894,
  "care": 7895,
  "dedĠinĠthe": 7896,
  "asĠaĠresul": 7897,
  "charterĠ": 7898,
  "Ġwith": 7899,
  "itĠwouldĠ": 7900,
  "Ġlis": 7901,
  "sbon": 7902,
  "kingĠin": 7903,
  "ĠatĠleastĠ": 7904,
  "country,Ġ": 7905,
  "inĠfactĠ": 7906,
  "meansĠ": 7907,
  ",ĠwhichĠare": 7908,
  "Ġmediterranean": 7909,
  "tenenĠ": 7910,
  "schafts": 7911,
  "Ġsignal": 7912,
  "sicherheits": 7913,
  "nichtĠmehrĠ": 7914,
  "ieren.": 7915,
  "ĠwurdenĠ": 7916,
  "zeitpunktĠ": 7917,
  "gleichenĠ": 7918,
  "ĠsagenĠ": 7919,
  "undĠdemĠ": 7920,
  "Ġaufmerk": 7921,
  "programmsĠ": 7922,
  "bevölker": 7923,
  "fürĠihre": 7924,
  "mehrĠalsĠ": 7925,
  "notwendigenĠ": 7926,
  "reich": 7927,
  "notwendig": 7928,
  "ĠnochĠnicht": 7929,
  "abe": 7930,
  "plenumĠ": 7931,
  "Ġdurchgeführt": 7932,
  "rittĠ": 7933,
  "enĠfürĠdieĠ": 7934,
  "angesprochen": 7935,
  "betrifft,ĠsoĠ": 7936,
  "Ġdeut": 7937,
  "ete": 7938,
  "ĠeigenenĠ": 7939,
  "fürĠeinĠ": 7940,
  "ĠzuĠtun": 7941,
  "ĠrolleĠ": 7942,
  "sagenĠ": 7943,
  "ĠhandĠ": 7944,
  "tont": 7945,
  "weisen": 7946,
  "pete": 7947,
  "ĠweilĠ": 7948,
  "Ġlau": 7949,
  "einträ": 7950,
  "örper": 7951,
  "sieĠdieĠ": 7952,
  "Ġlisbon": 7953,
  "nsch": 7954,
  "diensteĠ": 7955,
  "kommen.": 7956,
  "unseremĠ": 7957,
  "verkehrs": 7958,
  "tan": 7959,
  "ĠinĠeuropa": 7960,
  "Ġbie": 7961,
  "herk": 7962,
  "wissen,Ġ": 7963,
  "nehm": 7964,
  "Ġinstitutionen": 7965,
  "verantwortlich": 7966,
  "ĠkenntnisĠ": 7967,
  "auchĠder": 7968,
  "grundle": 7969,
  "ĠrevisionĠ": 7970,
  "Ġnetz": 7971,
  "regime": 7972,
  "nü": 7973,
  "Ġpotential": 7974,
  "Ġbio": 7975,
  "e:": 7976,
  "eisen": 7977,
  "senbah": 7978,
  "definitionĠ": 7979,
  "ison": 7980,
  "liberalis": 7981,
  "Ġrestri": 7982,
  "okolade": 7983,
  "Ġpaten": 7984,
  "Ġair": 7985,
  "ximumĠ": 7986,
  "statementĠ": 7987,
  "communications": 7988,
  "ent.": 7989,
  "beenĠs": 7990,
  "represen": 7991,
  "Ġmessage": 7992,
  "idenceĠ": 7993,
  "ĠduringĠtheĠ": 7994,
  "used": 7995,
  "ĠparliamentĠand": 7996,
  "tly,Ġ": 7997,
  "lackĠofĠ": 7998,
  ",Ġboth": 7999,
  "ingdom": 8000,
  "pastĠ": 8001,
  "economicĠandĠsocial": 8002,
  "ĠofĠcourse": 8003,
  "Ġsaid,Ġ": 8004,
  "youĠthatĠ": 8005,
  "Ġconcerned,Ġ": 8006,
  "atĠthisĠ": 8007,
  "undertak": 8008,
  "congra": 8009,
  "Ġsufficient": 8010,
  "ĠitsĠownĠ": 8011,
  "Ġcapac": 8012,
  "asĠfarĠasĠ": 8013,
  ",ĠasĠwellĠas": 8014,
  ",ĠinĠorderĠto": 8015,
  ",ĠiĠamĠ": 8016,
  "lack": 8017,
  "sĠinĠthisĠ": 8018,
  "ĠwhichĠhave": 8019,
  "extent": 8020,
  "case,Ġ": 8021,
  "vereignt": 8022,
  "immedi": 8023,
  "atingĠtoĠthe": 8024,
  "carriedĠoutĠ": 8025,
  "Ġwhose": 8026,
  "ĠnotĠto": 8027,
  "cientific": 8028,
  "Ġconstru": 8029,
  "oundĠ": 8030,
  "Ġexploit": 8031,
  "Ġviol": 8032,
  "unitedĠnations": 8033,
  "Ġimpo": 8034,
  "ĠserviceĠ": 8035,
  "erv": 8036,
  "network": 8037,
  "jäh": 8038,
  "ergebnisseĠ": 8039,
  "tet.": 8040,
  "Ġsorge": 8041,
  "besitz": 8042,
  "arbeiten": 8043,
  "zuĠdiesemĠ": 8044,
  "änderungsanträgenĠ": 8045,
  "tatsächlich": 8046,
  "ĠbekämpfungĠderĠ": 8047,
  "nge": 8048,
  "undĠin": 8049,
  "Ġwal": 8050,
  "dischenĠ": 8051,
  "ĠentwicklungĠderĠ": 8052,
  "eisenbah": 8053,
  "Ġerns": 8054,
  ",Ġnämlich": 8055,
  "ĠkonkretenĠ": 8056,
  "schrit": 8057,
  "ziehenĠ": 8058,
  "ssch": 8059,
  "ĠdennĠ": 8060,
  "thal": 8061,
  "Ġspie": 8062,
  "viere": 8063,
  "Ġpas": 8064,
  "nitä": 8065,
  "ĠdesĠparlamentsĠ": 8066,
  "Ġgerichts": 8067,
  "gründen": 8068,
  "amster": 8069,
  "finanziellen": 8070,
  "risi": 8071,
  "Ġgründen": 8072,
  "bestimmungenĠ": 8073,
  "tore": 8074,
  "schiff": 8075,
  "Ġverkehr": 8076,
  "Ġinspe": 8077,
  "motion": 8078,
  "Ġfrü": 8079,
  "Ġkonfli": 8080,
  "reiheĠvon": 8081,
  "Ġvollständ": 8082,
  "zweiten": 8083,
  "bot": 8084,
  "freiheitenĠundĠrechteĠderĠbürger,Ġ": 8085,
  "Ġbürger,ĠjustizĠundĠinnereĠangelegenheit": 8086,
  "Ġcharta": 8087,
  "ratĠundĠ": 8088,
  "darumĠ": 8089,
  "vorschlagĠfürĠeineĠverordnungĠ": 8090,
  "formier": 8091,
  "ĠrechtĠaufĠ": 8092,
  "kinder": 8093,
  "minder": 8094,
  "kosovo": 8095,
  "regĠ": 8096,
  "Ġforde": 8097,
  "niem": 8098,
  "Ġhol": 8099,
  "ĠmeinenĠ": 8100,
  "Ġanz": 8101,
  "arbeitetĠ": 8102,
  "mist": 8103,
  "tungsstelleĠ": 8104,
  "povert": 8105,
  "veni": 8106,
  "adline": 8107,
  "eĠinĠden": 8108,
  "desi": 8109,
  "ĠtotalĠ": 8110,
  "ederal": 8111,
  "lär": 8112,
  "Ġech": 8113,
  "disp": 8114,
  "yer": 8115,
  "hite": 8116,
  "agu": 8117,
  "Ġreview": 8118,
  "abor": 8119,
  "Ġprofession": 8120,
  "Ġten": 8121,
  "everythingĠ": 8122,
  "approvedĠ": 8123,
  "theĠconf": 8124,
  "ĠtheĠcommissionĠandĠ": 8125,
  "forĠall": 8126,
  "Ġconferen": 8127,
  "theĠnextĠitemĠisĠtheĠreportĠ(a)ĠbyĠmrĠ": 8128,
  "transportĠandĠto": 8129,
  "Ġsay,Ġ": 8130,
  "eĠwithĠthe": 8131,
  "byĠa": 8132,
  "hasĠnotĠ": 8133,
  "ĠandĠthere": 8134,
  "ĠmeĠ": 8135,
  "fficiencyĠ": 8136,
  "ĠwhichĠi": 8137,
  "ufactur": 8138,
  "oryĠ": 8139,
  "withinĠtheĠeuropeanĠunion": 8140,
  "ĠoneĠhand,Ġ": 8141,
  "ackage": 8142,
  "ĠrelevantĠ": 8143,
  "makes": 8144,
  "becauseĠitĠ": 8145,
  "t,ĠtheĠ": 8146,
  "ĠalwaysĠ": 8147,
  "independent": 8148,
  "Ġlevel.": 8149,
  ",ĠwithĠthe": 8150,
  "reportĠ(a)ĠbyĠmrĠ": 8151,
  "ĠeffectĠ": 8152,
  "freiheitenĠundĠrechteĠderĠbürger,ĠjustizĠundĠinnereĠangelegenheit": 8153,
  "consul": 8154,
  "urge": 8155,
  "forĠtheirĠ": 8156,
  "ĠseriesĠof": 8157,
  "Ġconsequences": 8158,
  "livingĠ": 8159,
  "Ġexpe": 8160,
  "attemp": 8161,
  "yĠto": 8162,
  "aimĠ": 8163,
  "respective": 8164,
  "iĠalsoĠ": 8165,
  "ĠwantĠ": 8166,
  "ĠmayĠbe": 8167,
  "ĠcalledĠ": 8168,
  "campaig": 8169,
  "ismĠandĠ": 8170,
  "teen": 8171,
  "Ġcontain": 8172,
  "supp": 8173,
  "ĠformsĠof": 8174,
  "ĠdevelopingĠcountries": 8175,
  "accession": 8176,
  "Ġrail": 8177,
  "bürgernĠ": 8178,
  "ĠseinenĠ": 8179,
  "Ġfak": 8180,
  "Ġheu": 8181,
  "vertrauen": 8182,
  "kommenden": 8183,
  "ĠangesichtsĠderĠ": 8184,
  "lim": 8185,
  "ktivenĠ": 8186,
  "tendlich": 8187,
  "länger": 8188,
  "meng": 8189,
  "()ĠĠcĠĠ(co": 8190,
  "klangĠ": 8191,
  "ĠvonĠ": 8192,
  "arbeitsplätz": 8193,
  "Ġwachst": 8194,
  "Ġbesondere": 8195,
  "geographi": 8196,
  "Ġverstärk": 8197,
  "Ġzweck": 8198,
  "hörenĠ": 8199,
  "verbesser": 8200,
  "wennĠman": 8201,
  "ĠleiderĠ": 8202,
  "t,ĠdennĠ": 8203,
  "Ġsogar": 8204,
  "s?": 8205,
  "Ġetwa": 8206,
  "äß": 8207,
  "Ġbetri": 8208,
  "Ġdür": 8209,
  "wangs": 8210,
  "märkte": 8211,
  "veränitä": 8212,
  "Ġsag": 8213,
  "verb": 8214,
  "ĠĠcĠĠ(cod))": 8215,
  "tung": 8216,
  "ĠreiheĠvon": 8217,
  "beitrittĠ": 8218,
  "t,ĠweilĠ": 8219,
  "ĠaußerdemĠ": 8220,
  "einigtenĠ": 8221,
  "Ġverfü": 8222,
  "herkun": 8223,
  "imĠkosovoĠ": 8224,
  "fünf": 8225,
  "besten": 8226,
  "umsetz": 8227,
  ",ĠdieĠdieĠ": 8228,
  "krimini": 8229,
  "Ġorgan": 8230,
  "überschre": 8231,
  "Ġdiskutier": 8232,
  "ästinen": 8233,
  "aufgrundĠderĠ": 8234,
  "Ġschnell": 8235,
  "ses,Ġ": 8236,
  "negative": 8237,
  "herenĠ": 8238,
  "generation": 8239,
  "kau": 8240,
  "bert": 8241,
  "Ġoff": 8242,
  "offĠ": 8243,
  "ilian": 8244,
  "stei": 8245,
  "Ġwto": 8246,
  "ĠlifeĠ": 8247,
  ",Ġwill": 8248,
  "refle": 8249,
  "industrie,Ġ": 8250,
  "fairĠ": 8251,
  "tabak": 8252,
  "equen": 8253,
  "Ġcultural": 8254,
  "criminal": 8255,
  "long": 8256,
  "ĠitselfĠ": 8257,
  "Ġfuture,Ġ": 8258,
  "ĠsecondĠreading": 8259,
  "saf": 8260,
  "Ġestablish": 8261,
  "mrĠpresident,ĠtheĠ": 8262,
  "Ġlik": 8263,
  "poor": 8264,
  "ievingĠ": 8265,
  "ĠneedĠfor": 8266,
  "encourage": 8267,
  "whenĠtheĠ": 8268,
  "nextĠ": 8269,
  "ĠdecemberĠ": 8270,
  "Ġany": 8271,
  "ĠinĠrel": 8272,
  "ough": 8273,
  "ĠprincipleĠofĠ": 8274,
  "spre": 8275,
  "Ġexclus": 8276,
  "ĠguaranteeĠ": 8277,
  "ĠasĠan": 8278,
  "desig": 8279,
  "preci": 8280,
  "Ġmakes": 8281,
  "inĠtermsĠof": 8282,
  "ĠinĠitsĠ": 8283,
  "Ġadditional": 8284,
  "responsibleĠfor": 8285,
  "ĠcompletelyĠ": 8286,
  "therebyĠ": 8287,
  "via": 8288,
  "committee,Ġ": 8289,
  "similar": 8290,
  "estini": 8291,
  "ĠpeaceĠ": 8292,
  "toĠthisĠ": 8293,
  "nations": 8294,
  "tallyĠ": 8295,
  "agoĠ": 8296,
  "Ġelection": 8297,
  "ĠgoingĠto": 8298,
  "ĠdidĠnotĠ": 8299,
  "accountĠofĠthe": 8300,
  "reibenĠ": 8301,
  "ssenĠund": 8302,
  "wobei": 8303,
  "ist,Ġdaß": 8304,
  "vereinbarungĠ": 8305,
  "kraftĠ": 8306,
  "imĠhinblickĠaufĠdenĠ": 8307,
  "ĠwordenĠ": 8308,
  "erster": 8309,
  "Ġminde": 8310,
  "ĠhinsichtlichĠder": 8311,
  "gang": 8312,
  "räng": 8313,
  "machen": 8314,
  "ĠförderungĠderĠ": 8315,
  "pan": 8316,
  "mid": 8317,
  "oftĠ": 8318,
  "wirĠalle": 8319,
  "ĠverhandlungenĠ": 8320,
  "ĠbestimmtenĠ": 8321,
  "ĠfranzösischenĠ": 8322,
  "schlägenĠ": 8323,
  "en,ĠdenĠ": 8324,
  "gelöst": 8325,
  "Ġine": 8326,
  "gegenwärtigenĠ": 8327,
  "verfolg": 8328,
  "angenommenĠ": 8329,
  "dä": 8330,
  "ĠgemeinsamĠ": 8331,
  "abschied": 8332,
  "zuĠmach": 8333,
  "ĠaufgrundĠderĠ": 8334,
  "ĠnachĠdem": 8335,
  "Ġscho": 8336,
  "italie": 8337,
  "aufĠdieseĠ": 8338,
  "Ġausfüh": 8339,
  "interess": 8340,
  "echenlandĠ": 8341,
  "tatĠ": 8342,
  "erfüll": 8343,
  "Ġtürkei": 8344,
  "ürkischen": 8345,
  "ischeĠregierungĠ": 8346,
  "imĠrahmenĠ": 8347,
  "weige": 8348,
  "vorĠdem": 8349,
  "agĠ": 8350,
  "Ġdiplomat": 8351,
  "vonĠa": 8352,
  "legislative": 8353,
  "hnungĠ": 8354,
  "samm": 8355,
  "ßburgĠ": 8356,
  "entlich": 8357,
  "sekre": 8358,
  "genere": 8359,
  "pi": 8360,
  "ona": 8361,
  "fürĠdieseĠ": 8362,
  "inĠdenĠletztenĠ": 8363,
  "Ġradi": 8364,
  "vit": 8365,
  "liberalisierungĠ": 8366,
  "manage": 8367,
  "vital": 8368,
  "wto": 8369,
  "Ġcal": 8370,
  "jun": 8371,
  "herent": 8372,
  "mic": 8373,
  "Ġ(com": 8374,
  "significantĠ": 8375,
  "Ġsur": 8376,
  "lussĠ": 8377,
  "alling": 8378,
  "iĠwouldĠalsoĠlikeĠto": 8379,
  "ateĠandĠ": 8380,
  "weĠalsoĠ": 8381,
  "tedĠbyĠtheĠ": 8382,
  "ĠregionalĠpolicy,ĠtransportĠandĠto": 8383,
  "ĠtheĠcommitteeĠon": 8384,
  "ĠwithĠregardĠto": 8385,
  "ruralĠdevelopment": 8386,
  "posesĠ": 8387,
  "Ġpartnership": 8388,
  "playĠ": 8389,
  "Ġschem": 8390,
  "providing": 8391,
  "stanceĠ": 8392,
  "contribute": 8393,
  "sĠinĠorderĠto": 8394,
  "Ġconsidere": 8395,
  "mentĠofĠa": 8396,
  "ĠonceĠagain": 8397,
  "calling": 8398,
  "concerns": 8399,
  "pursu": 8400,
  "s,ĠwhichĠare": 8401,
  "sĠand,Ġ": 8402,
  "ĠimportanceĠ": 8403,
  "sufficient": 8404,
  "Ġwide": 8405,
  "atĠleastĠ": 8406,
  "aĠnew": 8407,
  "tsĠfor": 8408,
  "urrent": 8409,
  "posing": 8410,
  "ĠformĠof": 8411,
  "bablyĠ": 8412,
  "willĠhave": 8413,
  "ĠcitizensĠ": 8414,
  "omen,Ġ": 8415,
  "Ġcohere": 8416,
  "productsĠ": 8417,
  "accordingĠtoĠ": 8418,
  "Ġcritic": 8419,
  "Ġgreec": 8420,
  "Ġdoes": 8421,
  "asĠweĠ": 8422,
  "couldĠbe": 8423,
  "estinian": 8424,
  "Ġside": 8425,
  "whichĠthe": 8426,
  "ceĠandĠ": 8427,
  "ĠhumanĠbeing": 8428,
  "Ġalmost": 8429,
  "Ġalloc": 8430,
  "lusions": 8431,
  "sĠus": 8432,
  "strong": 8433,
  "Ġfacili": 8434,
  "ilitate": 8435,
  "Ġhumanitarian": 8436,
  "zuĠtun": 8437,
  "festgestell": 8438,
  "in!": 8439,
  "zuĠkönnen.": 8440,
  "bildungs": 8441,
  "möglichst": 8442,
  "zurĠer": 8443,
  "ĠweiterĠ": 8444,
  "hat,ĠdieĠ": 8445,
  "Ġprinz": 8446,
  "elektro": 8447,
  "ausgewo": 8448,
  "Ġwirksame": 8449,
  "Ġschließlich": 8450,
  ",ĠalsoĠ": 8451,
  "entwickl": 8452,
  "niveau": 8453,
  "hinzu": 8454,
  "ĠbesserĠ": 8455,
  "verab": 8456,
  "auswirk": 8457,
  "nachĠderĠtagesordnungĠfolgtĠdieĠausspracheĠ": 8458,
  "derĠberichtĠ": 8459,
  "n,ĠdaßĠdas": 8460,
  "Ġbekannt": 8461,
  "scheinlich": 8462,
  "n,ĠdaßĠdiese": 8463,
  "ole": 8464,
  "würdenĠ": 8465,
  "bilateral": 8466,
  "Ġverbo": 8467,
  "ĠbehördenĠ": 8468,
  "artige": 8469,
  "mel": 8470,
  "Ġbesei": 8471,
  "Ġstraf": 8472,
  "anĠdenĠrat": 8473,
  "handels": 8474,
  "zon": 8475,
  "ĠkommissionĠundĠ": 8476,
  "Ġverschiedenen": 8477,
  "konzep": 8478,
  "imĠnamenĠderĠ": 8479,
  "dennoch": 8480,
  "ziv": 8481,
  "ichĠdenk": 8482,
  "splan": 8483,
  "Ġpasse": 8484,
  "prüftĠ": 8485,
  "en,ĠweilĠ": 8486,
  "additional": 8487,
  "Ġinterne": 8488,
  "friedens": 8489,
  "gerichte": 8490,
  "spräsident": 8491,
  "n,ĠsoĠ": 8492,
  "eĠinitiative": 8493,
  "Ġmus": 8494,
  "linĠ": 8495,
  "Ġton": 8496,
  "ĠfolgenĠ": 8497,
  "chem": 8498,
  "sonst": 8499,
  "leichter": 8500,
  "momentĠ": 8501,
  "ĠdemokratischenĠ": 8502,
  "wurde.": 8503,
  "pruch": 8504,
  "inĠdenen": 8505,
  "Ġdarstell": 8506,
  "ationĠdesĠ": 8507,
  "gestimm": 8508,
  "hendeĠ": 8509,
  "modi": 8510,
  "inĠb": 8511,
  "potential": 8512,
  "landwirteĠ": 8513,
  "bus": 8514,
  "wait": 8515,
  "Ġ(a)": 8516,
  "Ġanalysi": 8517,
  "avo": 8518,
  "emb": 8519,
  "undsĠ": 8520,
  "ate,Ġ": 8521,
  ")].": 8522,
  "letĠus": 8523,
  "ĠduringĠ": 8524,
  "givingĠ": 8525,
  "Ġhuge": 8526,
  "ĠwellĠasĠthe": 8527,
  "severalĠ": 8528,
  "ĠandĠweĠ": 8529,
  "colleagues": 8530,
  "wantĠ": 8531,
  "ĠagricultureĠandĠ": 8532,
  "guaranteeĠ": 8533,
  "asĠwellĠas": 8534,
  "Ġimmedi": 8535,
  "didĠnotĠ": 8536,
  "hate": 8537,
  ",ĠwhatĠ": 8538,
  "ĠpeopleĠwhoĠ": 8539,
  "ĠeconomicĠandĠmonetaryĠ": 8540,
  "affairsĠ": 8541,
  "prises": 8542,
  "overall": 8543,
  "toĠcon": 8544,
  "Ġexchange": 8545,
  "Ġtalk": 8546,
  "american": 8547,
  "theĠonlyĠ": 8548,
  "qualityĠ": 8549,
  "Ġindustrial": 8550,
  "Ġinstitutional": 8551,
  "ĠbasedĠonĠ": 8552,
  "anĠend": 8553,
  "representĠ": 8554,
  "Ġavo": 8555,
  "voidĠ": 8556,
  "Ġoccas": 8557,
  "peopleĠwhoĠ": 8558,
  "theĠcommissionerĠ": 8559,
  "ĠsomethingĠ": 8560,
  "foodĠ": 8561,
  "quick": 8562,
  "turkeyĠ": 8563,
  "ĠturkeyĠ": 8564,
  "Ġfollow": 8565,
  "Ġobtain": 8566,
  "discha": 8567,
  "votedĠ": 8568,
  "Ġofficial": 8569,
  "movement": 8570,
  "respectĠfor": 8571,
  "mselve": 8572,
  "Ġcross": 8573,
  "theirĠownĠ": 8574,
  "presidency,Ġ": 8575,
  "inofficeĠofĠthe": 8576,
  "Ġfight": 8577,
  "ĠrespectĠfor": 8578,
  "ĠtheĠcitizen": 8579,
  "Ġparliament'Ġs": 8580,
  "distri": 8581,
  "civilĠ": 8582,
  "waste": 8583,
  "Ġgan": 8584,
  "ĠdaranĠerinner": 8585,
  "ihmĠ": 8586,
  "war,Ġ": 8587,
  "erneutĠ": 8588,
  "),Ġ": 8589,
  "fremdenverkehrĠ": 8590,
  "gemeinsamenĠstandpunktĠ": 8591,
  "Ġzusammenhang": 8592,
  "ĠänderungsantragĠ": 8593,
  "ĠrechtsvorschriftenĠ": 8594,
  "Ġaufge": 8595,
  "Ġfon": 8596,
  "Ġeffek": 8597,
  "kapital": 8598,
  "nzeich": 8599,
  ",ĠdaßĠman": 8600,
  "vorgesehenĠ": 8601,
  "Ġmänne": 8602,
  ",ĠherrĠ": 8603,
  "fsĠ": 8604,
  "Ġmei": 8605,
  "ĠmorgenĠ": 8606,
  "ĠvorschriftenĠ": 8607,
  "Ġgründ": 8608,
  "Ġgemäß": 8609,
  "derart": 8610,
  "Ġschwer": 8611,
  "stellen.": 8612,
  "ansichtĠ": 8613,
  "Ġbinnenmark": 8614,
  "ktiv": 8615,
  "Ġbegrü": 8616,
  "Ġermöglich": 8617,
  "Ġanerken": 8618,
  "Ġlediglich": 8619,
  "beiĠdem": 8620,
  "undĠdas": 8621,
  ",ĠdieĠin": 8622,
  "besor": 8623,
  "laubwür": 8624,
  "modal": 8625,
  "spä": 8626,
  "portugal": 8627,
  "vorhanden": 8628,
  "stattĠ": 8629,
  "sĠinĠder": 8630,
  "Ġjuni": 8631,
  "irgend": 8632,
  "t?": 8633,
  "imĠrahmenĠdesĠ": 8634,
  "konkretenĠ": 8635,
  "ĠmomentĠ": 8636,
  "gleit": 8637,
  "Ġzweiten": 8638,
  "erklärungĠ": 8639,
  "offeĠ": 8640,
  "osten": 8641,
  "scheintĠ": 8642,
  "betrachte": 8643,
  "teilungĠ": 8644,
  "freu": 8645,
  "ziellen": 8646,
  "derĠunionĠ": 8647,
  "uellenĠ": 8648,
  "usa": 8649,
  "ĠdarumĠ": 8650,
  "Ġch": 8651,
  "aufgenommenĠ": 8652,
  "zunehmen.": 8653,
  "rassismus": 8654,
  "desĠparlamentsĠ": 8655,
  "Ġtrotz": 8656,
  "gelĠ": 8657,
  "Ġbild": 8658,
  "ege": 8659,
  "aman": 8660,
  "ĠfoodĠ": 8661,
  "utter": 8662,
  "Ġschütz": 8663,
  "emission": 8664,
  "Ġkinder": 8665,
  "latz": 8666,
  "solana": 8667,
  "Ġdemonstra": 8668,
  "Ġrange": 8669,
  "vention,": 8670,
  "Ġenerg": 8671,
  "day": 8672,
  "mediter": 8673,
  "setting": 8674,
  "ĠcaseĠ": 8675,
  "membersĠofĠthe": 8676,
  "ĠtheĠcommissionerĠ": 8677,
  "asĠi": 8678,
  "ĠtypeĠof": 8679,
  "hasĠalreadyĠ": 8680,
  "effor": 8681,
  "attentionĠ": 8682,
  "ĠafterĠ": 8683,
  "ĠinĠmind": 8684,
  "ĠiĠwouldĠ": 8685,
  "Ġjudge": 8686,
  "theĠfactĠ": 8687,
  "Ġpolicy.": 8688,
  "titiveness": 8689,
  "letĠme": 8690,
  "equences": 8691,
  "iĠdoĠnotĠ": 8692,
  "parliamentaryĠ": 8693,
  "acle": 8694,
  "utting": 8695,
  "ĠalthoughĠ": 8696,
  "damage": 8697,
  "services": 8698,
  "weĠneedĠtoĠ": 8699,
  ".ĠthisĠ": 8700,
  "thisĠisĠa": 8701,
  "ĠtheĠcurrent": 8702,
  "inĠthese": 8703,
  "Ġwords,Ġ": 8704,
  "Ġcomplete": 8705,
  "viol": 8706,
  "Ġpollution": 8707,
  "ĠtheĠcouncil": 8708,
  "ncy.": 8709,
  "ĠparliamentaryĠ": 8710,
  "dialogu": 8711,
  "ĠstabilityĠ": 8712,
  "Ġcooperation,": 8713,
  "keep": 8714,
  "discharge": 8715,
  "ctionĠofĠtheĠ": 8716,
  "ĠimplementationĠof": 8717,
  "ĠasylumĠ": 8718,
  "receive": 8719,
  "weĠthereforeĠ": 8720,
  "Ġaustria": 8721,
  "theĠcouncil": 8722,
  "penal": 8723,
  "Ġdeb": 8724,
  "ĠreportsĠ": 8725,
  "craftĠ": 8726,
  "ĠesĠfürĠ": 8727,
  "ordnungs": 8728,
  "d)).": 8729,
  "verzüglich": 8730,
  "eigentlich": 8731,
  "Ġerforderlich": 8732,
  "ĠlinieĠ": 8733,
  "ĠvonĠderĠkommissionĠ": 8734,
  "Ġbeden": 8735,
  "liebe": 8736,
  "n,Ġderen": 8737,
  "esĠfürĠ": 8738,
  "regelnĠ": 8739,
  "werden,Ġdie": 8740,
  ",ĠwennĠwirĠ": 8741,
  "interne": 8742,
  "Ġbehandel": 8743,
  "zunehme": 8744,
  "Ġdafür": 8745,
  "ssen,Ġdaß": 8746,
  "fordernĠ": 8747,
  "ufigĠ": 8748,
  "politiken": 8749,
  "Ġgefordert": 8750,
  "Ġansch": 8751,
  "dische": 8752,
  "haltens": 8753,
  "nähe": 8754,
  "keit,ĠdieĠ": 8755,
  "ĠwerdenĠsoll": 8756,
  "diesesĠparlament": 8757,
  "jahres": 8758,
  "Ġständ": 8759,
  "ĠpunktĠ": 8760,
  "meistenĠ": 8761,
  "Ġitalien": 8762,
  "ĠerweiterungĠ": 8763,
  "vielmehrĠ": 8764,
  "hohe": 8765,
  "ĠausĠder": 8766,
  "legitim": 8767,
  "Ġerster": 8768,
  "juris": 8769,
  "ĠwichtigĠ": 8770,
  "rechtĠundĠ": 8771,
  "Ġmai": 8772,
  "zudemĠ": 8773,
  "sop": 8774,
  "geld": 8775,
  "gebü": 8776,
  "bezogenĠ": 8777,
  "freienĠ": 8778,
  "gegenĠdenĠ": 8779,
  "ambit": 8780,
  "sieht": 8781,
  "ĠweiterenĠ": 8782,
  ".Ġ(": 8783,
  "pap": 8784,
  "flo": 8785,
  "teilenĠ": 8786,
  "schü": 8787,
  "vorgeschlagenĠ": 8788,
  "geschäfts": 8789,
  "Ġker": 8790,
  "geldĠ": 8791,
  "informationenĠ": 8792,
  "Ġbetone": 8793,
  "Ġna": 8794,
  "en,ĠdieĠsich": 8795,
  "Ġrahmen": 8796,
  "ebenenĠ": 8797,
  "super": 8798,
  "inĠihremĠ": 8799,
  "ĠinĠallĠ": 8800,
  "Ġvölker": 8801,
  "bringen": 8802,
  "vereintenĠnationenĠ": 8803,
  "lass": 8804,
  "ĠvorĠdem": 8805,
  "nstitution": 8806,
  "personen": 8807,
  "kandidaten": 8808,
  "rechteĠder": 8809,
  "liefer": 8810,
  "ibenĠ": 8811,
  "ikoĠ": 8812,
  "Ġressour": 8813,
  "Ġstellungnahme": 8814,
  "ung,ĠdaßĠdie": 8815,
  "Ġvolk": 8816,
  "Ġauszu": 8817,
  "ausschau": 8818,
  "ĠichĠden": 8819,
  "Ġdom": 8820,
  "Ġdiskrimini": 8821,
  "menschenrechts": 8822,
  "Ġmig": 8823,
  "dens": 8824,
  "sorgungĠ": 8825,
  "soll.": 8826,
  "celona": 8827,
  "spo": 8828,
  "flüchtling": 8829,
  "humanitä": 8830,
  "Ġira": 8831,
  "administrative": 8832,
  "aufmerksamĠ": 8833,
  "maligenĠ": 8834,
  "dela": 8835,
  "Ġoperator": 8836,
  "schungĠundĠ": 8837,
  "Ġgreen": 8838,
  "also": 8839,
  "note": 8840,
  "Ġtru": 8841,
  "Ġrais": 8842,
  "way,Ġ": 8843,
  "weĠwouldĠ": 8844,
  "Ġopportunitie": 8845,
  "Ġbear": 8846,
  "ĠhalfĠ": 8847,
  "ĠseveralĠ": 8848,
  "ensureĠ": 8849,
  "Ġpractical": 8850,
  "Ġbrought": 8851,
  "lyĠtheĠ": 8852,
  "fundsĠ": 8853,
  ",ĠmrsĠ": 8854,
  "mentionedĠ": 8855,
  "Ġtoday,Ġ": 8856,
  "esterdayĠ": 8857,
  "ĠofĠall": 8858,
  "ĠtermsĠofĠthe": 8859,
  "stacle": 8860,
  "ĠofĠitsĠ": 8861,
  "directlyĠ": 8862,
  "ĠmrĠpresident,Ġ": 8863,
  "concerned,Ġ": 8864,
  ",ĠtheĠcommissionĠ": 8865,
  "proposalĠforĠa": 8866,
  "asureĠ": 8867,
  "ĠcurrentlyĠ": 8868,
  "payĠ": 8869,
  "cedĠtoĠ": 8870,
  "ofĠtheirĠ": 8871,
  "inĠfact,Ġ": 8872,
  "inĠtheirĠ": 8873,
  "worker": 8874,
  "ĠsomeĠofĠthe": 8875,
  "Ġmotion": 8876,
  "ĠhereĠ": 8877,
  "ĠaccessĠto": 8878,
  "ĠinĠother": 8879,
  "depen": 8880,
  "alongĠ": 8881,
  "Ġdisch": 8882,
  "connection": 8883,
  "Ġincome": 8884,
  "s,Ġa": 8885,
  "ĠandĠother": 8886,
  "ĠtimeĠwhenĠ": 8887,
  "Ġlittle": 8888,
  "pointĠoutĠ": 8889,
  "coverĠ": 8890,
  "cannotĠbe": 8891,
  "becauseĠweĠ": 8892,
  "Ġdistri": 8893,
  "nachĠeiner": 8894,
  "geben.": 8895,
  "Ġged": 8896,
  "politik,ĠverkehrĠundĠ": 8897,
  "erlaß": 8898,
  "ĠhohenĠ": 8899,
  "tĠhatĠ": 8900,
  "wese": 8901,
  "wesenĠ": 8902,
  "Ġmehre": 8903,
  "hrere": 8904,
  "österreich": 8905,
  "organisationenĠ": 8906,
  "umgesetz": 8907,
  "Ġdarum": 8908,
  "um,Ġ": 8909,
  "ressourcen": 8910,
  "Ġrand": 8911,
  "sieĠmich": 8912,
  ",Ġwobei": 8913,
  "tĠwurde,Ġ": 8914,
  "bevor": 8915,
  "hend": 8916,
  "gebietenĠ": 8917,
  "bedeut": 8918,
  "muß,Ġ": 8919,
  "r.Ġ": 8920,
  "tĠsein": 8921,
  "jetz": 8922,
  "üngsten": 8923,
  "zuĠgewährleis": 8924,
  "unschĠ": 8925,
  "jedes": 8926,
  "gegent": 8927,
  "zumindestĠ": 8928,
  "lesungĠ": 8929,
  "fallenĠ": 8930,
  "Ġvorlie": 8931,
  "ansatz": 8932,
  "zw": 8933,
  "zuĠüber": 8934,
  "luxem": 8935,
  "verstandenĠ": 8936,
  "sindĠund": 8937,
  "sible": 8938,
  "atur": 8939,
  "unions": 8940,
  "nebe": 8941,
  "Ġstati": 8942,
  "parteienĠ": 8943,
  "ĠnochĠeinmal": 8944,
  "gebietĠderĠ": 8945,
  "Ġerwar": 8946,
  "porno": 8947,
  "Ġwasse": 8948,
  "Ġnormal": 8949,
  "ĠportugiesischenĠ": 8950,
  "tren": 8951,
  "aktionen": 8952,
  "ausĠdiesem": 8953,
  "prinzipie": 8954,
  "Ġwelt": 8955,
  "cau": 8956,
  "ĠnotwendigenĠ": 8957,
  "maßen": 8958,
  "pienĠ": 8959,
  "ĠsportĠ": 8960,
  "ĠdesĠausschussesĠfürĠ": 8961,
  "ĠfrageĠder": 8962,
  "Ġdro": 8963,
  "ĠhandeltĠ": 8964,
  "belĠ": 8965,
  "Ġflüchtling": 8966,
  "protokoll": 8967,
  "Ġbosni": 8968,
  "demonstra": 8969,
  "Ġpursu": 8970,
  "inĠsp": 8971,
  "wus": 8972,
  "hibit": 8973,
  "majorityĠ": 8974,
  "andĠwhich": 8975,
  "thatĠtheĠcommissionĠ": 8976,
  "bodies": 8977,
  "Ġmarket.": 8978,
  "Ġcontribute": 8979,
  "ĠcaseĠof": 8980,
  "ĠandĠalsoĠ": 8981,
  "Ġannual": 8982,
  "Ġcapital": 8983,
  "hateverĠ": 8984,
  "e,ĠbutĠ": 8985,
  "Ġunemployment": 8986,
  "cludedĠ": 8987,
  ",ĠresearchĠand": 8988,
  "directĠ": 8989,
  "Ġprese": 8990,
  "uranceĠ": 8991,
  "ĠmemberĠstates,Ġ": 8992,
  "ĠrelatingĠto": 8993,
  "yondĠ": 8994,
  "tsĠwhich": 8995,
  "etheles": 8996,
  "itĠisĠnotĠ": 8997,
  "wnĠup": 8998,
  "Ġmarch": 8999,
  "Ġrelationship": 9000,
  ",ĠwhichĠhas": 9001,
  "ionsĠofĠ": 9002,
  ",ĠasĠa": 9003,
  "within": 9004,
  "fromĠa": 9005,
  "steadĠof": 9006,
  "cultural": 9007,
  "leadĠto": 9008,
  "Ġnatural": 9009,
  "ĠmoreĠthan": 9010,
  "whoĠhave": 9011,
  "theĠnecessaryĠ": 9012,
  "Ġourselve": 9013,
  "conventionĠ": 9014,
  "aroundĠ": 9015,
  "Ġis,Ġ": 9016,
  "Ġworker": 9017,
  "fluenceĠ": 9018,
  "ĠhouseĠ": 9019,
  "erciseĠ": 9020,
  "day.": 9021,
  "ĠbelieveĠthatĠ": 9022,
  "ĠinĠtheĠf": 9023,
  "mediterranean": 9024,
  "smĠ": 9025,
  "Ġaustrian": 9026,
  "ĠofĠlaw": 9027,
  "Ġexisting": 9028,
  "humanĠrights,Ġ": 9029,
  "thereĠwas": 9030,
  "remind": 9031,
  "Ġproducer": 9032,
  "ledĠto": 9033,
  "yugosla": 9034,
  "vergangenenĠ": 9035,
  "Ġjuris": 9036,
  "zustimm": 9037,
  "tifizie": 9038,
  "ĠkeinenĠ": 9039,
  "regionalpolitik,ĠverkehrĠundĠ": 9040,
  "flexib": 9041,
  "akzeptier": 9042,
  "desĠeuropäischen": 9043,
  "regelungenĠ": 9044,
  "ĠvölligĠ": 9045,
  "worde": 9046,
  "regio": 9047,
  "Ġkriteri": 9048,
  "wachse": 9049,
  "Ġwo": 9050,
  "Ġtatsächlich": 9051,
  "garanti": 9052,
  "Ġfünf": 9053,
  "Ġargument": 9054,
  "enĠsichĠ": 9055,
  "ationĠundĠ": 9056,
  "gleiche": 9057,
  "armutĠ": 9058,
  "Ġmonop": 9059,
  "nied": 9060,
  "angerĠ": 9061,
  "tzu": 9062,
  "ren!": 9063,
  "nochĠnicht": 9064,
  "te,ĠdieĠ": 9065,
  "Ġopfer": 9066,
  "wenden": 9067,
  "Ġversch": 9068,
  "tat": 9069,
  "übrigens": 9070,
  "rab": 9071,
  "parentĠ": 9072,
  "tzule": 9073,
  "ober": 9074,
  "Ġhandels": 9075,
  "überĠeine": 9076,
  "tweit": 9077,
  "Ġmaterial": 9078,
  "sins": 9079,
  "gibt,Ġ": 9080,
  "Ġterritori": 9081,
  "t,ĠaberĠ": 9082,
  "mitteilungĠ": 9083,
  "en,ĠaberĠ": 9084,
  "Ġzusamme": 9085,
  "ĠförderungĠ": 9086,
  "enĠsozial": 9087,
  "Ġaspekte": 9088,
  "ĠersteĠ": 9089,
  "Ġfrieden": 9090,
  "stoff": 9091,
  ",ĠwelcheĠ": 9092,
  "verbrechen": 9093,
  "Ġaktiv": 9094,
  "ĠentscheidungĠ": 9095,
  "Ġtamp": 9096,
  "helsinki": 9097,
  "ĠistĠein": 9098,
  "losenĠ": 9099,
  "ĠausĠden": 9100,
  "Ġbewuß": 9101,
  "n,ĠdieĠwirĠ": 9102,
  "Ġäußer": 9103,
  "Ġakzeptier": 9104,
  "esĠuns": 9105,
  "ĠimĠrahmenĠ": 9106,
  "Ġsü": 9107,
  "Ġunseres": 9108,
  "ĠwirtschaftlicheĠ": 9109,
  "Ġmenschenrechts": 9110,
  "bir": 9111,
  "Ġmission": 9112,
  "losevic": 9113,
  "Ġkosovo": 9114,
  "industrie,Ġaußen": 9115,
  "außenhandel": 9116,
  "handel,Ġfor": 9117,
  ",ĠforschungĠundĠ": 9118,
  "schungĠundĠenergie": 9119,
  "Ġreferen": 9120,
  "commitment": 9121,
  "orse": 9122,
  "raĠle": 9123,
  "agreement": 9124,
  "ation": 9125,
  "ĠcommunicationĠ": 9126,
  "Ġherit": 9127,
  "itage": 9128,
  "Ġcommunity,Ġ": 9129,
  "toĠmakeĠ": 9130,
  "ĠoffĠ": 9131,
  "contex": 9132,
  "incorpor": 9133,
  "ingĠinĠmin": 9134,
  "Ġdifficulties": 9135,
  "tronic": 9136,
  "neverĠ": 9137,
  "ofĠmyĠ": 9138,
  "whereĠthe": 9139,
  "unemployment": 9140,
  "edĠatĠ": 9141,
  "ĠtellĠ": 9142,
  "Ġweek": 9143,
  "absolutelyĠ": 9144,
  "toĠsayĠ": 9145,
  "Ġinfrastructur": 9146,
  "wishe": 9147,
  "dueĠto": 9148,
  "Ġcolleag": 9149,
  "ĠtoĠdoĠ": 9150,
  "alloc": 9151,
  "ĠdirectĠ": 9152,
  "industrie,Ġaußenhandel,Ġfor": 9153,
  "handel,ĠforschungĠundĠenergie": 9154,
  "Ġheritage": 9155,
  "regular": 9156,
  "judicial": 9157,
  "ĠconcernedĠ": 9158,
  "ĠatĠtheĠsame": 9159,
  "Ġaccident": 9160,
  "byĠmrĠ": 9161,
  "ĠtheĠrapporteur": 9162,
  "Ġanother": 9163,
  "typeĠof": 9164,
  "ationsĠfor": 9165,
  "Ġpopul": 9166,
  "ĠintoĠaccoun": 9167,
  "igures": 9168,
  "ĠimplementationĠofĠthe": 9169,
  "ofĠitsĠ": 9170,
  "ĠbroadĠ": 9171,
  "'Ġ,Ġ": 9172,
  "portugueseĠpresidencyĠ": 9173,
  "Ġurgent": 9174,
  "that,Ġin": 9175,
  "Ġappropriations": 9176,
  "roundĠ": 9177,
  "'Ġ": 9178,
  "ingĠthat": 9179,
  "chair": 9180,
  "whenĠwe": 9181,
  "ĠofĠfundamentalĠright": 9182,
  "Ġdesig": 9183,
  "easternĠ": 9184,
  "xic": 9185,
  "sie,Ġ": 9186,
  "ersteĠ": 9187,
  "Ġgrundlage": 9188,
  "ĠderĠpräsident": 9189,
  "Ġsprach": 9190,
  "ĠrichtlinieĠdesĠeuropäischenĠparlamentsĠundĠdesĠratesĠ": 9191,
  "straßen": 9192,
  "legen,": 9193,
  "auchĠinĠ": 9194,
  "oda": 9195,
  "shalb": 9196,
  "Ġanstreng": 9197,
  "dienstleis": 9198,
  "suchen,Ġ": 9199,
  "Ġformu": 9200,
  "wirklichen": 9201,
  "vonĠeinem": 9202,
  "vonĠdem": 9203,
  "versuch": 9204,
  "ventionenĠ": 9205,
  "wältig": 9206,
  "tĠwerdenĠkönnen.": 9207,
  "treibe": 9208,
  "schätz": 9209,
  "e,ĠwieĠ": 9210,
  "ĠwirtschaftĠ": 9211,
  "Ġkommission,": 9212,
  "oderĠdieĠ": 9213,
  "artikel": 9214,
  "sprü": 9215,
  "rahmen": 9216,
  "petenz": 9217,
  "europäischeĠunionĠ": 9218,
  "tĠsind.": 9219,
  "rung,Ġ": 9220,
  "vorliegenden": 9221,
  "loren": 9222,
  "erungĠundĠ": 9223,
  "haltenĠundĠ": 9224,
  "schö": 9225,
  "wird,ĠdieĠ": 9226,
  "fristigĠ": 9227,
  "Ġfortschritte": 9228,
  "sportĠ": 9229,
  "Ġpreis": 9230,
  "wieĠderĠ": 9231,
  "pollution": 9232,
  "igkeits": 9233,
  "reibe": 9234,
  "ĠstandardsĠ": 9235,
  "präsent": 9236,
  "tlerĠ": 9237,
  "Ġras": 9238,
  "krise": 9239,
  "künftigenĠ": 9240,
  "politischerĠ": 9241,
  "wesentlich": 9242,
  "lichenĠund": 9243,
  "Ġwisse": 9244,
  "unabhängigĠ": 9245,
  "Ġmio": 9246,
  "io.": 9247,
  "demokratieĠ": 9248,
  "Ġpat": 9249,
  "Ġbeschränk": 9250,
  "nachĠden": 9251,
  "aus,Ġ": 9252,
  "industrie,Ġaußenhandel,ĠforschungĠundĠenergie": 9253,
  "Ġmio.": 9254,
  "tĠwerden,Ġund": 9255,
  "Ġfer": 9256,
  "dimensionĠ": 9257,
  "ĠgegenwärtigĠ": 9258,
  "gegenwärtigĠ": 9259,
  "Ġtreff": 9260,
  "portugie": 9261,
  "ĠdimensionĠ": 9262,
  "zeigtĠ": 9263,
  "einanderĠ": 9264,
  "tagesordnungĠ": 9265,
  "menschenrechte,Ġ": 9266,
  "sequentĠ": 9267,
  "erenĠund": 9268,
  "binnenmarktĠ": 9269,
  "tĠdenĠ": 9270,
  "Ġgroßer": 9271,
  "Ġwurde.": 9272,
  "sämtlicheĠ": 9273,
  "drittenĠ": 9274,
  "ĠbevölkerungĠ": 9275,
  "heiß": 9276,
  "Ġhier": 9277,
  "pu": 9278,
  "Ġglobalis": 9279,
  "sationĠ": 9280,
  "Ġmil": 9281,
  "Ġbse": 9282,
  "top": 9283,
  "ters": 9284,
  "diesenĠbericht": 9285,
  "erzeugnisseĠ": 9286,
  "assive": 9287,
  "labour": 9288,
  "Ġdigital": 9289,
  "pens": 9290,
  "atĠall": 9291,
  "ĠconflictĠ": 9292,
  "Ġspeech": 9293,
  "ĠtoĠus": 9294,
  "Ġtraffic": 9295,
  "ĠuntilĠ": 9296,
  "tedĠoutĠ": 9297,
  "wingĠup": 9298,
  "atedĠbyĠ": 9299,
  "establish": 9300,
  "itĠisĠimportant": 9301,
  "infrastructur": 9302,
  "ĠprovisionĠ": 9303,
  "upĠtoĠ": 9304,
  "ĠyouĠhave": 9305,
  "s,Ġfor": 9306,
  "sĠwere": 9307,
  "consideration": 9308,
  "iĠshall": 9309,
  "condu": 9310,
  "impactĠ": 9311,
  "forĠexample,Ġ": 9312,
  "scribe": 9313,
  "behind": 9314,
  "Ġcases": 9315,
  "licantĠ": 9316,
  "scheme": 9317,
  "someĠofĠthe": 9318,
  "merge": 9319,
  "Ġconnection": 9320,
  "ĠformerĠ": 9321,
  "ĠcouncilĠregulationĠ": 9322,
  "urgent": 9323,
  "credi": 9324,
  "ĠatĠtheĠsameĠtime": 9325,
  "ĠactivitiesĠ": 9326,
  "Ġdesire": 9327,
  "Ġassessment": 9328,
  "dow": 9329,
  "ringĠthe": 9330,
  "Ġagreement": 9331,
  "building": 9332,
  "greec": 9333,
  "ĠdirectiveĠonĠ": 9334,
  "ĠunitedĠstates": 9335,
  "Ġfores": 9336,
  "Ġscientific": 9337,
  "pic": 9338,
  "doubtĠ": 9339,
  "ĠagainstĠthe": 9340,
  "llective": 9341,
  "Ġdischarge": 9342,
  "said,Ġ": 9343,
  "Ġextent": 9344,
  "strategyĠ": 9345,
  "sinceĠtheĠ": 9346,
  "Ġconstitutional": 9347,
  "theĠcouncilĠandĠ": 9348,
  "bear": 9349,
  "Ġrun": 9350,
  "includingĠthe": 9351,
  "ĠcentralĠbank": 9352,
  "Ġit,Ġ": 9353,
  "ĠcommitteeĠonĠtheĠenvironment,ĠpublicĠhealthĠandĠconsumerĠ": 9354,
  "theĠcommitteeĠ": 9355,
  "compar": 9356,
  "Ġindustry,Ġexternal": 9357,
  "externalĠtrade": 9358,
  "Ġtrade,ĠresearchĠand": 9359,
  "colateĠ": 9360,
  "verurteil": 9361,
  "gesamte": 9362,
  "kräftig": 9363,
  "beschlossen": 9364,
  "ĠistĠund": 9365,
  ",ĠdaßĠdieĠkommissionĠ": 9366,
  "Ġlang": 9367,
  "truktur": 9368,
  "isches": 9369,
  "umsetzungĠ": 9370,
  "wob": 9371,
  "oboda": 9372,
  "ĠbürgernĠ": 9373,
  "Ġgenom": 9374,
  "nisĠderĠ": 9375,
  "ĠdieĠmöglichkeitĠ": 9376,
  "Ġbeschleun": 9377,
  "haupt": 9378,
  "Ġherz": 9379,
  "Ġjahrhundert": 9380,
  "ĠfünfĠ": 9381,
  "vorrang": 9382,
  "beschäftigungs": 9383,
  "Ġeinbezieh": 9384,
  "ĠsolltenĠ": 9385,
  "ĠĠwie": 9386,
  "benenfallsĠ": 9387,
  "ĠvonĠihnenĠ": 9388,
  "Ġgenan": 9389,
  "haltsĠ": 9390,
  "verabschied": 9391,
  "Ġbemer": 9392,
  "politikĠder": 9393,
  "morgenĠ": 9394,
  "chsten": 9395,
  "Ġdaten": 9396,
  "Ġbesor": 9397,
  "ĠnichtĠdie": 9398,
  "licheĠundĠ": 9399,
  "aspekte": 9400,
  "langenĠ": 9401,
  "kolleginnenĠundĠkollegen!": 9402,
  "ĠbestimmungenĠ": 9403,
  "ökonomischen": 9404,
  ",ĠwieĠichĠ": 9405,
  "eingesch": 9406,
  "behandlungĠ": 9407,
  "ĠbedingungenĠ": 9408,
  "ĠeindeutigĠ": 9409,
  "fei": 9410,
  "bleibe": 9411,
  "kohärenz": 9412,
  "stärker": 9413,
  "streiche": 9414,
  "Ġuntersuch": 9415,
  "ĠinteressenĠderĠ": 9416,
  "haftenĠ": 9417,
  "Ġheißt,Ġ": 9418,
  "unru": 9419,
  "gen:": 9420,
  "ĠsolcheĠ": 9421,
  "Ġgerichtshof": 9422,
  "Ġrisi": 9423,
  "genz": 9424,
  "auchĠden": 9425,
  "ĠhabeĠich": 9426,
  "richtlinien": 9427,
  "ĠspracheĠ": 9428,
  "Ġacht": 9429,
  "ung,Ġdaß": 9430,
  "tinu": 9431,
  "jedem": 9432,
  "ĠwegĠ": 9433,
  "idenĠ": 9434,
  "einfluß": 9435,
  "sollte.": 9436,
  "Ġfebruar": 9437,
  "Ġgeführt": 9438,
  "konventionĠ": 9439,
  "bekämpfungĠ": 9440,
  "ĠzurĠverfügungĠ": 9441,
  "durchzuführe": 9442,
  "sinnvoll": 9443,
  "wö": 9444,
  "digital": 9445,
  "Ġfas": 9446,
  "istĠeinĠ": 9447,
  "normal": 9448,
  "Ġrassi": 9449,
  "inĠart": 9450,
  "Ġparte": 9451,
  "rlich": 9452,
  "Ġindustry,ĠexternalĠtrade,ĠresearchĠand": 9453,
  "woboda": 9454,
  "itiere": 9455,
  "versamm": 9456,
  "qualifizie": 9457,
  "anstrengungenĠ": 9458,
  "temĠ": 9459,
  "sson": 9460,
  "richtungenĠ": 9461,
  "ität,Ġ": 9462,
  "gender": 9463,
  "Ġkamp": 9464,
  "pa": 9465,
  "ĠkinderĠ": 9466,
  "Ġseen": 9467,
  "fahrt": 9468,
  "(com": 9469,
  "profession": 9470,
  "Ġrelig": 9471,
  "hest": 9472,
  "elon": 9473,
  "Ġday": 9474,
  "Ġec": 9475,
  "Ġimmigrant": 9476,
  "ilyĠ": 9477,
  "dangerous": 9478,
  "Ġoccur": 9479,
  "itional": 9480,
  "versityĠ": 9481,
  "ĠsupportĠtheĠ": 9482,
  "function": 9483,
  "five": 9484,
  "ĠtheĠcre": 9485,
  "sist": 9486,
  "Ġmid": 9487,
  "valueĠ": 9488,
  "articleĠĠofĠtheĠ": 9489,
  "treatyĠofĠa": 9490,
  "ĠalreadyĠbeen": 9491,
  "ĠbyĠmrĠ": 9492,
  "usedĠtoĠ": 9493,
  "volvingĠ": 9494,
  "thcoming": 9495,
  "Ġhappen": 9496,
  "applied": 9497,
  "ĠsystemĠofĠ": 9498,
  "cases": 9499,
  "onĠtheĠcon": 9500,
  "ĠlegalĠaffair": 9501,
  "theĠresul": 9502,
  "accordingĠtoĠtheĠ": 9503,
  "Ġauditor": 9504,
  "andsĠof": 9505,
  "custo": 9506,
  "today,Ġ": 9507,
  "ĠpointĠofĠview": 9508,
  "ĠthroughoutĠ": 9509,
  "ently,Ġ": 9510,
  "existing": 9511,
  "economicĠand": 9512,
  "possibleĠtoĠ": 9513,
  "adsĠof": 9514,
  "ĠiĠthink": 9515,
  "itĠisĠalsoĠ": 9516,
  "Ġmep": 9517,
  "mining": 9518,
  "theyĠhave": 9519,
  "targe": 9520,
  "tyĠandĠ": 9521,
  "practical": 9522,
  "notĠtheĠ": 9523,
  "ĠtheĠcouncilĠandĠ": 9524,
  "e,Ġwhich": 9525,
  "thingĠto": 9526,
  "ĠensuringĠ": 9527,
  "cultur": 9528,
  "ĠcannotĠbe": 9529,
  "challe": 9530,
  "Ġincorpor": 9531,
  "natureĠ": 9532,
  "ĠsignificantĠ": 9533,
  "Ġwhich,Ġ": 9534,
  "Ġkeep": 9535,
  "vehicle": 9536,
  "ĠfoundĠ": 9537,
  "ĠunĠ": 9538,
  "adequateĠ": 9539,
  "leave": 9540,
  "toco": 9541,
  "Ġsupplement": 9542,
  "ĠzuĠmach": 9543,
  "wichtigsten": 9544,
  "Ġbezüglich": 9545,
  "Ġvertrauen": 9546,
  "chterĠ": 9547,
  "zuständigenĠ": 9548,
  "nachĠderĠtagesordnungĠfolgtĠderĠberichtĠ(a)ĠvonĠherrnĠ": 9549,
  "regionalpolitik,ĠverkehrĠundĠfremdenverkehrĠ": 9550,
  "tigen,": 9551,
  "sfondsĠ": 9552,
  "eichen": 9553,
  "beschäftigungĠundĠ": 9554,
  "krank": 9555,
  "ventio": 9556,
  "ländlichenĠrau": 9557,
  "ländlicheĠentwicklungĠ": 9558,
  "gĠundĠ": 9559,
  "essenĠ": 9560,
  "u.": 9561,
  ".Ġa": 9562,
  "Ġa.": 9563,
  "matik": 9564,
  "inĠihrerĠ": 9565,
  "imĠberichtĠ": 9566,
  "liegtĠ": 9567,
  "ichĠkannĠ": 9568,
  "nachĠderĠtagesordnungĠfolgtĠdieĠausspracheĠüberĠdenĠ": 9569,
  "ueĠmich": 9570,
  "wirĠsolltenĠ": 9571,
  "tzei": 9572,
  "Ġeg": 9573,
  "ĠdezemberĠ": 9574,
  "gĠderĠkommissionĠ": 9575,
  "en:": 9576,
  "konsequen": 9577,
  "Ġgar": 9578,
  "ĠebenĠ": 9579,
  "gestelltenĠ": 9580,
  "zuĠlasse": 9581,
  "erhaltenĠ": 9582,
  "seinem": 9583,
  "rtĠwerdenĠ": 9584,
  ",Ġdar": 9585,
  "terĠderĠ": 9586,
  "gefahrĠ": 9587,
  "gehtĠesĠ": 9588,
  "reform": 9589,
  "wollen": 9590,
  "sĠdieĠ": 9591,
  "enĠfürĠ": 9592,
  "radi": 9593,
  "einger": 9594,
  "befürwor": 9595,
  "wen": 9596,
  "Ġsof": 9597,
  "verbreit": 9598,
  "atlan": 9599,
  "durchĠeineĠ": 9600,
  "ĠwegenĠ": 9601,
  "richtigĠ": 9602,
  "ela": 9603,
  "ku": 9604,
  "ichĠhof": 9605,
  "Ġnächsten": 9606,
  "Ġpersonen": 9607,
  "ĠproblemĠderĠ": 9608,
  "betru": 9609,
  "Ġleader": 9610,
  "Ġerwäh": 9611,
  "örter": 9612,
  "führungs": 9613,
  "thes": 9614,
  "trächt": 9615,
  "freiheitenĠundĠrechteĠderĠbürger,ĠjustizĠundĠinnereĠangelegenheiten": 9616,
  "portugiesischenĠ": 9617,
  "Ġnotwendig": 9618,
  "langt,Ġ": 9619,
  "Ġaufnahme": 9620,
  "hervorge": 9621,
  "polizei": 9622,
  "Ġübertra": 9623,
  "Ġlö": 9624,
  "öse": 9625,
  "Ġquote": 9626,
  ",Ġwährend": 9627,
  "eindeutigĠ": 9628,
  "erei": 9629,
  "rechtenĠ": 9630,
  "izon": 9631,
  "legungenĠ": 9632,
  "Ġtop": 9633,
  "jedenĠfallĠ": 9634,
  "innov": 9635,
  "ĠgutĠ": 9636,
  "enĠ\"": 9637,
  "industrieĠ": 9638,
  "evalu": 9639,
  "flä": 9640,
  "Ġinterpre": 9641,
  "lateral": 9642,
  "Ġbeobach": 9643,
  "etc.": 9644,
  "vas": 9645,
  "Ġjournal": 9646,
  "statis": 9647,
  "Ġmag": 9648,
  "manentĠ": 9649,
  "Ġextra": 9650,
  "amin": 9651,
  "Ġtransfer": 9652,
  "powerĠ": 9653,
  "dassĠdieĠ": 9654,
  "ia,Ġ": 9655,
  "wusst": 9656,
  "Ġfif": 9657,
  "ĠdemocracyĠ": 9658,
  "sĠthis": 9659,
  "weĠneed": 9660,
  "exclus": 9661,
  "sĠshouldĠ": 9662,
  "years,Ġ": 9663,
  "aĠnumberĠof": 9664,
  "ĠsimplyĠ": 9665,
  "ĠnotĠbeen": 9666,
  "ĠissueĠof": 9667,
  "among": 9668,
  "ongst": 9669,
  "uallyĠ": 9670,
  "growth": 9671,
  "ureĠto": 9672,
  "weĠshall": 9673,
  "developed": 9674,
  "ĠyoungĠpeople": 9675,
  "yselfĠ": 9676,
  "makeĠit": 9677,
  ",Ġtogether": 9678,
  "verage": 9679,
  "ĠofĠtheĠcommission,": 9680,
  ",ĠforĠthe": 9681,
  "ĠlevelĠof": 9682,
  "Ġcategor": 9683,
  "ensuringĠ": 9684,
  "tedĠandĠ": 9685,
  "ulsor": 9686,
  "ĠsectorsĠ": 9687,
  "Ġexception": 9688,
  "ĠbodyĠ": 9689,
  "ĠinterestsĠ": 9690,
  ",Ġwhose": 9691,
  ",ĠweĠare": 9692,
  "tĠinĠthe": 9693,
  "ĠinĠfavourĠofĠ": 9694,
  "llabor": 9695,
  "iable": 9696,
  "occas": 9697,
  "tingĠtoĠ": 9698,
  "ĠforĠaĠresolution": 9699,
  "Ġlevel,Ġ": 9700,
  "ĠnecessaryĠto": 9701,
  "Ġreceive": 9702,
  "entire": 9703,
  "are,Ġ": 9704,
  "favour": 9705,
  "forwar": 9706,
  "s,ĠparticularlyĠ": 9707,
  "Ġsho": 9708,
  "vening": 9709,
  "negotiations": 9710,
  "securityĠandĠ": 9711,
  "decide": 9712,
  "theĠcounci": 9713,
  "institutional": 9714,
  "ĠeuropeanĠcouncilĠ": 9715,
  "tsĠtheĠ": 9716,
  "youĠwill": 9717,
  "rug": 9718,
  "ryĠto": 9719,
  "minor": 9720,
  "merelyĠ": 9721,
  "challeng": 9722,
  "Ġrejec": 9723,
  "relatingĠto": 9724,
  "Ġfollowing": 9725,
  "Ġitself": 9726,
  "ĠcountriesĠand": 9727,
  "ĠsummitĠ": 9728,
  "obacco": 9729,
  "ĠwirĠhabenĠ": 9730,
  "sindĠdie": 9731,
  "e,ĠundĠ": 9732,
  "igungĠderĠ": 9733,
  "imal": 9734,
  "zwischenĠdemĠ": 9735,
  "bildung,Ġ": 9736,
  "umsetzungĠderĠ": 9737,
  "Ġkatastrop": 9738,
  "nelĠ": 9739,
  "Ġnieder": 9740,
  "büro": 9741,
  "vernünf": 9742,
  "konkrete": 9743,
  "erungĠvon": 9744,
  "Ġgebiete": 9745,
  "fangre": 9746,
  "ĠallerdingsĠ": 9747,
  "ĠderĠsch": 9748,
  "landwirtschaftĠundĠ": 9749,
  "beweis": 9750,
  "ĠberichtsĠ": 9751,
  "Ġansatz": 9752,
  "amongst": 9753,
  "tarbeit": 9754,
  "ltenĠ": 9755,
  "verbun": 9756,
  "absichtig": 9757,
  "Ġhaben,Ġdie": 9758,
  "verbesserungĠderĠ": 9759,
  "Ġinteg": 9760,
  "ermöglichen": 9761,
  "Ġanalyse": 9762,
  "itel": 9763,
  "maßnahmenĠzur": 9764,
  "Ġsenk": 9765,
  "tzustell": 9766,
  "untersuch": 9767,
  "markt": 9768,
  "nĠunternehmenĠ": 9769,
  "gefundenĠ": 9770,
  "chsĠ": 9771,
  "kommunikations": 9772,
  ",ĠimĠ": 9773,
  "Ġhatte": 9774,
  "istĠderĠ": 9775,
  "t,Ġwas": 9776,
  "ĠgehtĠesĠ": 9777,
  "solchen": 9778,
  "Ġkü": 9779,
  "kriminal": 9780,
  "n,Ġd.Ġh.": 9781,
  "dieĠmöglichkeitĠ": 9782,
  "ĠauchĠwennĠ": 9783,
  "reis": 9784,
  "diskutier": 9785,
  "ertenĠ": 9786,
  "anspruch": 9787,
  "zuĠgebe": 9788,
  "ĠzuĠder": 9789,
  "Ġsteht": 9790,
  "ärm": 9791,
  "ĠverbindungĠ": 9792,
  "Ġnegative": 9793,
  "haben,Ġdie": 9794,
  "ĠwohlĠ": 9795,
  "see": 9796,
  "Ġhistori": 9797,
  "dialog": 9798,
  "tĠoderĠ": 9799,
  "rtei": 9800,
  "rlei": 9801,
  "Ġus": 9802,
  "mag": 9803,
  "wennĠdieĠ": 9804,
  "ĠrechtsĠ": 9805,
  "Ġwollen,Ġ": 9806,
  "Ġhohe": 9807,
  "fang": 9808,
  "gungĠderĠ": 9809,
  "resĠ": 9810,
  "Ġrealis": 9811,
  "argument": 9812,
  "meinen": 9813,
  "digenĠ": 9814,
  "Ġbli": 9815,
  "Ġdemokratische": 9816,
  "zicht": 9817,
  "mpat": 9818,
  "ĠĠcĠĠ(cns": 9819,
  "Ġrom": 9820,
  "Ġgeschaffen": 9821,
  "enĠundĠmittle": 9822,
  "z.Ġb.": 9823,
  "italian": 9824,
  "Ġfrem": 9825,
  "begrüß": 9826,
  "zyper": 9827,
  "bestehenden": 9828,
  "Ġmittelmeer": 9829,
  "ĠichĠhabe": 9830,
  "zin": 9831,
  "achte": 9832,
  "block": 9833,
  "end,Ġ": 9834,
  "jugoslawi": 9835,
  "heim": 9836,
  "Ġprof": 9837,
  "paten": 9838,
  "Ġpetition": 9839,
  "ival": 9840,
  "Ġappe": 9841,
  "sessionĠ": 9842,
  "thing": 9843,
  "ĠabsolutelyĠ": 9844,
  "fyĠ": 9845,
  "ological": 9846,
  "Ġcommission'Ġs": 9847,
  "myĠgroup": 9848,
  "Ġdangerous": 9849,
  "greeĠof": 9850,
  "austrian": 9851,
  "ĠmakeĠa": 9852,
  "ĠeffortĠ": 9853,
  "Ġeffor": 9854,
  "municationĠfromĠ": 9855,
  "funding": 9856,
  "priorityĠ": 9857,
  "Ġway,Ġ": 9858,
  "ĠrepresentĠ": 9859,
  "Ġamon": 9860,
  "Ġsociety,Ġ": 9861,
  "Ġclar": 9862,
  "ĠreportĠonĠthe": 9863,
  "Ġshor": 9864,
  ",Ġthen": 9865,
  "compan": 9866,
  "ĠonĠbehalfĠofĠthe": 9867,
  "iledĠ": 9868,
  "highlight": 9869,
  "oubtedlyĠ": 9870,
  "Ġwho": 9871,
  "andsĠ": 9872,
  "ĠauthoritiesĠ": 9873,
  "ĠexpressĠmyĠ": 9874,
  "toĠachieve": 9875,
  "ofĠthi": 9876,
  ",ĠwithoutĠ": 9877,
  "ĠeveryoneĠ": 9878,
  "'Ġ.": 9879,
  "tedĠin": 9880,
  "principleĠofĠ": 9881,
  "tcoming": 9882,
  "ism,Ġ": 9883,
  "goes": 9884,
  "imilar": 9885,
  "natural": 9886,
  "ĠtheyĠhave": 9887,
  "constitu": 9888,
  "sideĠthe": 9889,
  "ĠpartĠof": 9890,
  "ĠturkishĠ": 9891,
  "ĠjuneĠ": 9892,
  "Ġcommercial": 9893,
  "Ġapplied": 9894,
  ",ĠnamelyĠ": 9895,
  "ĠtheĠcour": 9896,
  "cedĠbyĠ": 9897,
  "withĠthisĠ": 9898,
  "Ġmorning": 9899,
  "theĠcountries": 9900,
  "Ġrussi": 9901,
  "ĠweĠwill": 9902,
  "Ġcombin": 9903,
  "compete": 9904,
  "Ġincluding": 9905,
  "ĠwordsĠ": 9906,
  "fight": 9907,
  "ryingĠto": 9908,
  "ethnic": 9909,
  "Ġsecur": 9910,
  "ĠhumanĠrights,Ġ": 9911,
  "ĠandĠitsĠ": 9912,
  "ĠmeansĠ": 9913,
  "ĠthatĠareĠ": 9914,
  "ĠtalkingĠ": 9915,
  "th,Ġ": 9916,
  "Ġattitude": 9917,
  "ĠatĠa": 9918,
  "ĠgreatĠdealĠofĠ": 9919,
  "iĠwas": 9920,
  "ĠinĠfactĠ": 9921,
  "esĠthatĠ": 9922,
  "speed": 9923,
  "south": 9924,
  "ĠmodelĠ": 9925,
  "spreadĠ": 9926,
  "groundĠ": 9927,
  "Ġhonourable": 9928,
  "bacco": 9929,
  "periode": 9930,
  "fraktionĠder": 9931,
  "Ġerne": 9932,
  "inĠderĠlage": 9933,
  "vertretenĠ": 9934,
  "ĠinĠderĠlage": 9935,
  "jahreĠ": 9936,
  "signal": 9937,
  "attle": 9938,
  "konstru": 9939,
  "wieĠichĠ": 9940,
  "Ġgelei": 9941,
  "ĠundĠauch": 9942,
  "charak": 9943,
  "ĠgleichenĠ": 9944,
  "schwierigkeitenĠ": 9945,
  "unterĠdemĠ": 9946,
  "zeig": 9947,
  "vielfal": 9948,
  "langtĠ": 9949,
  "Ġumsetz": 9950,
  "ĠunterstützungĠderĠ": 9951,
  "wirtschaftsĠundĠ": 9952,
  "Ġerinnert": 9953,
  "trategie": 9954,
  "werdenĠsoll": 9955,
  "ĠfrankreichĠ": 9956,
  "itu": 9957,
  "wirtschaftĠundĠwährungĠ": 9958,
  "eherĠ": 9959,
  "jeĠ": 9960,
  "nehmen,": 9961,
  "senk": 9962,
  "solutĠ": 9963,
  "Ġes,Ġ": 9964,
  "prozesse": 9965,
  "Ġlange": 9966,
  ",ĠumĠdieĠ": 9967,
  "ĠgebenĠ": 9968,
  "rungen,": 9969,
  "kommission,": 9970,
  "ĠfinanzielleĠ": 9971,
  "kritik": 9972,
  "ĠtätigkeitĠ": 9973,
  "ola": 9974,
  "n,Ġdurch": 9975,
  "ĠganzeĠ": 9976,
  "tĠwerdenĠkann.": 9977,
  "ĠinteressenĠ": 9978,
  "Ġbeschlossen": 9979,
  ",ĠvorĠallem": 9980,
  "mitgliedstaaten,Ġ": 9981,
  "dieĠfrage": 9982,
  "sĠinĠden": 9983,
  "meld": 9984,
  "läßlich": 9985,
  "Ġziv": 9986,
  "einerseitsĠ": 9987,
  "Ġchanc": 9988,
  "französischenĠ": 9989,
  "inĠdiesenĠ": 9990,
  "höchst": 9991,
  "nĠunsererĠ": 9992,
  "vonĠihnenĠ": 9993,
  "Ġstab": 9994,
  "würde.": 9995,
  "beam": 9996,
  "Ġbeschäftigungs": 9997,
  "zäh": 9998,
  "gespr": 9999
}